fffd
0004
fff6
fff5
0013
ffdd
002c
000e
fffa
0013
ffff
fffb
ffe0
ffca
0001
fff5
0015
fff5
ffff
0004
0006
002e
ffe6
ffe2
fff2
000d
0003
0013
ffe2
fffc
fff3
ffea
fffc
ffe9
ffdf
0026
ffd1
0034
fff8
fffb
0001
fff7
ffe3
0001
0014
0015
0028
fff2
000a
0016
fffd
ffeb
fff3
0020
0011
ffe2
ffeb
ffed
0012
0026
0036
0028
fffa
fffd
000c
0012
fff5
fffc
0007
0000
0007
0002
ffff
fffa
fffe
001b
0023
fff4
ffea
fff2
0005
ffef
fff6
ffef
ffda
ffe0
fff9
0003
ffdb
fff0
0006
fff2
ffd6
fff5
fffe
0009
ffed
0013
000f
ffe5
ffeb
0013
0017
001d
ffe1
ffe0
000a
0003
000b
fffe
ffdb
002e
fff7
000b
001f
fff4
0002
fffe
0011
0000
001d
ffeb
fff7
ffe6
0008
0003
0007
0009
fff3
0009
ffdd
000b
ffee
0000
0017
fff3
ffe4
0001
0014
ffe3
0011
0006
fffd
fff9
0025
0017
000f
0017
0015
0028
ffe9
000b
0005
0021
ffef
000b
0008
fffb
000b
fff3
0008
ffe6
000a
001b
0006
ffe8
fff0
ffed
0025
000d
0021
0023
002f
ffff
fffd
0026
0011
fff1
ffe9
fffa
0017
000b
000d
0027
000b
0000
0017
fffa
0025
0003
ffff
ffff
0001
fff7
ffd0
000a
0001
0006
0017
0007
0008
ffe5
0009
000e
fffc
fff1
ffec
fff0
0013
ffe8
fff1
fff5
0014
000d
001a
0008
0023
0007
0005
0007
0000
fff4
0008
000c
ffe9
fff8
0010
0008
0005
fff7
fff6
ffec
ffd7
0009
ffef
fffd
0009
0009
fff4
001d
fff9
0028
ffd3
0020
0007
0000
fff6
0026
0018
ffe7
ffde
0032
fff5
fff1
fffa
fff8
ffe6
ffe3
ffdc
fff2
0005
fff4
ffcd
ffed
0005
001f
0020
0014
ffea
0013
ffdc
0008
0008
fffd
000c
0026
0006
fff1
fff1
001d
ffdd
ffdf
0014
fffa
ffe4
0015
fff6
fff1
ffff
000c
ffee
001b
0005
001a
0038
ffc7
ffef
fff5
ffe6
ffcf
ffeb
0000
0000
ffee
0005
ffdc
003e
ffeb
ffd4
ffe5
0016
0004
0006
0019
0026
0015
ffe9
fff5
0018
fff7
0000
0037
002d
fff0
fff1
000b
0010
ffdc
fff4
ffe3
0001
0021
ffff
0034
0023
ffe7
0012
0003
0010
001a
ffe3
0003
ffe9
0017
fff8
002b
0006
000b
ffeb
0011
fffb
ffdc
ffda
0018
0000
0017
fff0
fff4
000d
fff8
ffcd
0000
0000
fffd
ffdf
ffda
fff9
ffde
fff6
fff7
000b
ffef
ffd0
0006
fff9
fff8
001e
fffb
0009
0019
0005
0021
000a
001e
ffd6
ffef
fff2
001a
fff7
ffe5
ffe4
0005
0005
ffd5
0009
0012
ffff
0002
000a
0024
001c
003d
fffb
000b
0007
0007
0000
fff9
fff3
0018
fffb
000a
0002
0011
0005
0008
ffda
0000
ffef
000b
ffed
fffa
0001
fffa
ffeb
0010
ffdb
ffd5
0013
ffcc
fffb
fff0
0012
001a
0003
0015
0021
fffc
ffda
fff5
fffb
fffe
0022
ffe2
001e
0002
ffff
0000
fffb
0028
fff1
ffdb
000f
0007
0012
000c
000e
0003
0004
ffdb
fff5
000d
0011
0008
0001
ffed
fff2
0008
0041
ffd3
0018
0002
001a
0001
000b
0029
0012
fff8
fff6
0025
0009
fffc
000d
0005
fff0
0002
0016
ffe9
0017
fff7
000e
0015
0000
fffe
0019
fffe
0001
ffeb
ffdb
000f
fffd
000b
000e
0021
ffef
001a
0021
0013
fff8
fffc
0018
0016
fff1
0001
0000
0000
fffe
0008
fff4
0013
001e
ffff
0004
fff6
fffc
0002
ffff
ffff
fffa
fffc
0000
0008
0009
0000
0001
0004
0008
fffe
0006
0001
002b
0010
0000
0000
fff7
0000
0003
000b
0002
0000
fff8
0002
0000
0007
0003
0001
fffc
fffe
0000
0005
0039
fffd
000d
fffd
fff6
fffb
0008
0007
fffe
0005
000b
0008
fff8
0001
fff7
0000
fffa
0010
0000
fff0
ffdb
fffa
0027
ffec
0000
0017
ffef
fffa
ffff
fff5
001e
0014
fffd
ffdf
0007
ffd2
001f
fffd
fffa
0032
0013
000c
fff7
ffff
fff9
000b
0001
000e
001c
0011
ffec
ffe1
fffb
0011
0010
fff5
0004
fff0
0005
ffe3
ffee
0013
0003
ffed
ffe4
0023
ffdd
fff8
0014
fffc
000d
0006
fff7
000d
ffeb
0003
0026
0000
001d
0002
fffb
0046
fffd
ffeb
fff8
0026
ffe9
000d
0010
002a
ffe4
0007
ffe3
fff7
0003
000b
ffd4
ffe0
fff7
0039
0014
fff6
0021
ffe1
ffff
ffef
fff6
ffee
fffa
0022
0005
001c
0014
0029
000f
0027
ffde
0012
fff0
ffcf
0026
fffe
0025
ffe6
001e
ffdd
ffed
ffee
ffd6
0000
ffea
ffdc
000b
0033
ffed
ffdc
ffcf
0039
fffb
000a
fff2
fffc
0008
0008
ffc7
ffd8
fff2
0000
fff3
0039
fff4
0018
0007
0017
ffeb
fff8
ffee
ffef
0021
fffb
fff0
0007
0033
ffce
0007
fff4
ffe9
0011
0007
0001
000a
ffe5
ffe2
0012
fff3
0000
fff1
ffd8
0015
001a
fff1
001b
ffc8
0004
000a
fff7
fff0
003e
001f
000c
0012
000c
000d
0003
0028
0004
0004
ffe2
0000
ffe0
0000
001e
ffea
ffe8
ffd5
ffef
ffe2
fffb
ffd1
0019
fff1
ffec
000f
0000
fffb
0021
fff6
ffff
0003
0036
0000
ffd9
002f
ffe1
0009
0017
ffe9
ffed
fffd
fff3
0000
0013
ffff
0018
ffe9
0014
0000
ffdb
fffd
ffe6
0001
001b
0029
ffd9
0001
0012
fffb
ffd6
ffef
0012
ffe4
0000
0009
ffee
0020
ffe2
0003
0012
ffdb
fff1
0010
ffe7
fff4
0017
0008
000a
000c
ffe8
ffe8
ffd6
ffda
ffe0
fff8
001d
0000
0001
ffc1
003a
0008
ffff
fffc
003d
ffef
ffec
ffeb
0000
ffcb
0005
0000
ffc7
fffa
0032
0011
0003
fff5
ffdb
ffe8
0017
ffe8
0003
0025
fffd
ffdf
0010
002c
0003
ffe3
fff8
ffd8
0036
0009
ffda
0046
0008
001a
ffda
002f
ffea
0002
ffdf
ffe7
fff5
ffc8
ffe4
0006
0037
fff2
ffe9
ffdc
005d
0009
0000
0000
001a
000b
0006
001a
002d
fff2
0000
ffe0
0012
fff2
ffe7
fff4
0015
ffea
ffea
fff5
0012
0026
0007
0017
fff2
0004
fff2
fff8
fffa
ffe0
fff4
0017
000c
0012
0004
fff1
fffd
0000
ffe7
0007
000d
ffcb
fff4
001c
ffde
0007
0031
000a
fffa
fffe
fffe
0010
002d
0009
0000
0006
0012
000f
ffce
001a
fffb
fff7
0017
000d
0000
ffee
001a
ffdd
0013
001d
000d
0018
0006
fff0
ffe0
fffa
fff8
000c
ffe7
0003
0009
fff7
fff5
0013
0009
0009
0005
0003
ffe8
0024
0002
0006
000b
fff9
000d
ffd6
fffd
000b
ffe0
0000
0014
0011
ffda
fffb
ffec
001b
0015
ffdd
ffe7
000c
ffdf
0012
0011
ffeb
0007
ffea
0011
fff4
000b
fff7
ffd9
0017
0016
fff7
001c
000d
ffec
0011
000c
000a
0016
0010
000d
fff5
fffa
0006
fffb
0007
0007
001d
000a
003b
0017
0002
fff0
000d
0022
ffff
000e
000f
fff2
0008
000b
ffea
0023
ffff
000a
ffea
fff2
ffeb
fff2
ffeb
0020
0003
ffe8
ffef
0018
fff5
000b
000b
0004
0017
0000
ffc5
ffff
0002
0004
ffe4
ffff
ffeb
001b
0007
001a
0010
0019
001d
ffe7
0000
ffe4
fff4
ffd9
001e
fffd
fff5
fff3
0030
ffdc
ffee
ffc8
0002
fff3
fff5
001b
0033
001b
ffd9
fffe
ffff
0009
0038
0020
0012
0010
0014
0031
0025
ffce
ffe9
fffc
000d
fffe
0019
fff6
0013
fff4
fff9
ffee
ffd4
0003
000a
fff9
fffb
001d
fffc
ffe0
0000
fff1
001a
fff9
fff3
fffc
000a
0023
ffd6
fff8
fff5
0015
0016
001b
0023
ffec
fffa
ffec
ffe3
001f
0013
ffe1
002a
0011
fff2
ffe9
ffdb
0001
ffd4
fff7
0003
000b
fff1
0005
fff0
0013
000c
fff2
fffd
0005
fff3
ffe3
fff8
0001
0019
0007
fffc
ffdb
ffed
fff4
0022
ffe2
0005
0000
0022
fff8
ffe6
fffe
fff1
ffee
fff5
fff6
fffd
000a
0000
0000
0002
ffe2
ffe5
000b
0009
000e
000d
001f
0007
fff9
0000
ffcf
0013
0011
fff3
fff1
001c
fffd
000a
fff5
000a
ffeb
000e
0005
000e
0025
001c
fff3
0010
ffef
fff2
0015
ffed
ffff
003b
fff8
ffff
000c
0014
000e
fff0
ffe4
ffea
ffe7
fff6
000b
0008
fff8
fff2
0000
0015
fff6
ffeb
0023
0024
001a
ffe4
fff5
001e
0009
0006
0005
000e
fff0
0019
0010
0017
0000
0009
0003
001d
0006
fff9
fffe
ffe9
0000
001c
ffef
001a
0006
fff3
fff7
fff9
fff7
fff9
fff6
ffe0
0001
000b
001a
fff3
0001
fff8
0036
001f
fff5
ffd0
000d
0000
ffff
0007
fff8
000f
fff4
ffe4
0000
fffb
0008
0003
0007
0049
0005
fff2
0017
0004
ffed
fff2
ffd4
0006
ffe8
0006
000c
0000
ffdf
0016
fff4
000c
0009
000e
ffed
fff6
fff5
0004
ffef
0012
fff9
ffec
ffee
fff6
ffe8
001e
fff2
ffe2
0010
ffe7
ffe5
0024
ffe9
0008
0005
fff9
ffe7
fff4
fffc
0006
fff3
fff4
000b
000e
0025
fff1
000b
0001
0000
ffed
fff0
001c
000e
0025
fff5
fffe
0017
fffb
ffee
fffe
ffb9
fff4
ffd9
0015
fffd
0007
ffeb
0007
0014
fff7
0003
0014
ffe3
ffe1
ffee
0006
ffe0
000f
0024
fffc
001b
0022
0003
000e
fffc
fffa
0010
fffc
000b
000e
ffd6
0002
fff5
0011
0007
ffe9
0028
0011
0028
ffef
fffb
0001
0006
ffee
ffe8
000d
0006
0015
fff7
0010
ffec
fff2
0000
fffc
001c
ffd9
fff5
001c
fffe
001b
ffe5
ffda
fff7
0000
000a
ffee
fff1
ffe3
0002
0001
fffb
fffb
fff2
fff9
ffe8
0026
000f
0013
ffe9
ffe3
fff5
0008
000d
000c
0007
0002
000e
0019
ffda
0021
fff0
0006
ffe1
ffea
0000
fff9
fffa
ffee
fff4
ffed
fff9
0004
ffe2
ffe5
fff2
ffda
000c
ffe2
0009
ffea
ffec
0010
ffee
fffb
0015
0005
0009
fffe
0006
0024
000f
ffe2
000e
0012
0013
fffd
fffb
0000
002b
ffd8
fff8
ffdd
0014
ffef
0015
fff3
ffe1
fff5
0004
fff4
ffe3
ffd5
0014
fff9
0020
002e
ffe7
0002
fffd
ffeb
000d
0025
0004
002d
ffe7
001f
0004
0008
ffd5
fffc
0016
000e
fffe
0000
ffe9
0011
001b
0008
003d
fffa
0000
fffa
0015
0004
ffff
0025
ffec
0003
0008
fffb
ffe8
0019
ffe7
ffe2
000c
000e
fff6
0029
fffc
ffec
fffa
fff2
fffc
ffd7
001f
fff8
000f
fff0
0011
0002
fff9
0011
ffc1
001c
000a
fff4
0000
ffec
0008
ffed
ffec
0003
000c
fffe
000e
ffef
ffc5
fff5
000e
0017
fffd
0014
0000
fffb
fff2
0006
ffe0
fffa
ffd8
ffdc
ffd5
fff4
0029
0001
ffef
ffd2
ffe4
ffd4
fffd
0021
fffc
0000
0015
ffd5
fff7
0008
fff8
002a
fff3
0012
0017
ffdd
0002
ffe2
fff1
fffa
ffe6
fff1
0021
fffd
ffd3
ffda
ffed
0005
0024
ffd4
000a
0007
ffe9
ffff
0006
001f
fff7
ffe1
0012
ffe1
0000
0019
ffe7
ffef
ffe0
fff2
ffcf
0036
fffd
0000
0007
ffef
ffdb
ffed
0013
ffda
0006
fff1
ffdf
ffd6
ffeb
fff6
fff1
ffee
ffe9
ffe7
000c
0022
0011
ffeb
fff8
fff5
003e
fffd
ffe3
ffeb
ffe7
ffec
fff0
0004
ffe9
ffdd
0015
001f
fff4
fffc
fff0
002b
0025
0009
ffd9
0000
003d
0005
fffa
ffed
fffc
002a
0018
fffa
000c
000c
fff5
fff4
0001
0044
0007
002b
0005
000e
ffe5
0002
ffff
ffff
002b
ffd9
0013
0010
0009
ffe1
ffe6
0002
0018
0015
fffa
ffe5
0014
0012
0026
fffa
0011
0013
0009
0006
ffff
ffed
0003
fff3
ffd3
000d
0006
0025
000c
000e
0018
0020
001f
000b
0018
0004
ffdc
fffc
ffe8
ffff
001d
001e
ffe9
fffb
0000
0000
001a
0020
ffea
ffee
0000
ffc1
000d
ffff
0030
000e
0020
fffd
0000
ffed
ffff
000b
0008
ffc4
ffce
0004
0017
0000
fffe
ffe5
0013
ffee
ffff
000e
0010
fffe
fff9
0008
ffee
ffff
000c
0003
fff4
0000
000b
ffd6
fffa
0008
0014
fff8
0001
ffff
ffec
fff8
fff2
fff0
0001
001a
0000
ffff
fff2
0012
0000
000e
ffea
ffd0
001c
001a
0000
fff3
fff3
0005
001b
000a
fffb
0000
fff2
0015
000b
fff4
000a
fffd
fff9
000c
ffff
ffc0
000f
0003
0006
fff0
fffd
fffd
ffff
0005
000a
0004
fff2
000c
0004
fffa
fffc
ffd4
0000
0016
0000
0000
0012
ffe5
fffa
0014
0003
fff7
0002
0006
fffa
ffec
0016
0025
0019
0004
fff6
0000
0017
0003
0003
ffe2
000c
fff7
0011
0014
0005
0000
0016
ffcf
ffe5
fff9
000c
000d
0005
fffc
0004
000f
0009
ffef
fffc
fff6
ffe4
0009
ffe3
ffe5
0023
fff7
0023
0015
ffee
001b
0002
fff9
ffea
0001
0007
0000
ffef
ffe9
ffda
0001
fff7
0032
ffe9
ffec
0006
0002
ffe7
fffc
ffef
0001
fff9
ffc6
fff6
ffe5
fffc
000a
ffdf
0000
000b
0006
0033
ffff
fff9
0008
000e
0013
0011
ffb8
000c
0008
ffff
fff2
000f
0000
0006
fffa
0015
0006
ffef
ffe1
ffe8
0006
0000
000b
0020
fff7
0006
ffff
001e
ffef
ffdb
ffff
0001
0009
fff3
0016
0009
ffce
fff2
000f
ffda
ffd9
0007
ffe3
0000
fffc
0015
fffe
001b
fffd
0000
0009
000d
001a
001d
002a
0000
000c
002d
ffcf
0001
0008
000a
0015
ffe6
0010
fffb
0014
0007
fffa
ffe6
ffef
001e
fff2
000d
0000
0023
ffe4
0018
001e
0022
0020
0018
fff5
ffef
fffb
ffe0
0013
001f
0013
ffe4
fff2
0025
ffff
0006
fff3
ffda
ffdc
0000
0008
000a
0021
fffc
ffe5
ffe2
0011
ffd8
0015
0000
ffe5
001f
ffe1
fff8
fffb
ffeb
0006
002d
0001
ffe8
0000
0022
ffeb
ffe6
0003
ffff
ffec
000d
fffd
fffc
ffd6
ffff
0012
0005
0002
ffd7
fff9
ffcd
fff2
ffd8
0044
0004
fffa
0027
0022
001a
fffe
0004
fffc
ffe7
001e
0014
fff4
000e
000c
ffc3
ffe9
fffa
000e
000e
002d
000f
0009
0007
000d
000f
0000
ffd4
000a
0011
0011
0032
ffe7
fff4
fff3
ffd5
0006
0004
ffe9
fff1
0010
fffd
0000
0002
0029
000d
000b
fff1
fffb
ffe3
fff6
0011
0011
fff1
0007
ffde
fffe
ffe7
ffff
000d
0000
0015
ffef
fffd
ffef
000e
fff9
ffde
0011
0016
fff8
ffee
fff0
fffd
ffff
fffe
000a
0021
fff4
0004
000b
ffed
0011
0002
fffc
000c
0024
ffec
0003
fff7
0007
fff8
0011
0016
000e
000b
001e
0019
ffdf
0000
fff4
ffe5
0007
000e
000f
0004
fff5
0000
0002
fff6
fffa
fff2
fffa
fffa
001f
0004
0004
ffff
0002
0003
0000
0000
000c
0009
fff4
0006
0015
ffdc
ffee
0002
000f
ffec
0002
fff0
0000
fff5
ffff
fff2
ffef
0000
ffdd
fff1
0007
0016
ffbf
fff3
0006
ffe4
fff7
0002
0001
fff9
fffe
ffe7
0000
fffe
0014
0000
0012
fffd
ffec
0012
fff9
0022
0013
ffee
ffe5
0010
ffe5
ffed
ffee
0011
0011
fff8
0002
0016
0004
0024
ffeb
fff9
0008
fff9
0005
0016
001a
000c
000f
0008
fff3
0004
fff4
0016
ffee
0018
0002
001a
0002
ffed
fff9
000c
0003
fffc
ffef
ffe4
000d
ffec
0005
0009
fff5
fffe
0003
fffb
ffe3
fffb
fff4
000d
fff6
0010
ffff
ffd8
0008
0005
fff4
0003
fffa
0002
fff3
0011
001f
fff7
fff6
ffe9
0011
001c
0025
0009
fff8
fff9
0016
0014
fff9
fff2
ffe9
ffd3
000b
fff3
fffe
000c
ffe2
ffdf
ffd8
fffc
001e
0007
fff6
ffeb
001d
0014
0007
0017
ffef
0010
0000
0006
001b
ffff
0019
ffd7
000e
0016
0016
0010
ffdf
0001
0000
0001
ffff
ffce
ffea
002c
0005
ffff
002b
ffdf
ffe5
ffd5
fff1
fffb
fff1
fffc
0003
ffee
0000
ffea
ffed
0004
0014
ffec
fffc
0011
fff8
0003
0010
0008
0026
fffe
fffa
0019
fffc
0011
fffe
fff0
fffc
0010
fff6
000c
0010
ffef
fffb
0012
ffd9
ffe1
0007
fffe
000d
0006
fffa
ffec
0002
0001
fff4
0007
001c
ffeb
0000
fffc
ffe9
0015
ffe7
0025
ffe9
ffea
0004
0008
0006
000b
fff6
0000
ffec
ffee
ffe9
ffcb
ffff
fff8
fffa
ffe9
fff4
0022
ffe7
ffff
0013
0014
0021
001b
001a
000a
000a
0014
fff7
ffd3
0006
fffb
0001
0013
0006
0012
ffe0
001a
ffef
0016
0002
ffe5
fff6
0002
0019
fff8
ffec
0015
001c
ffde
0018
ffee
fffa
fff3
ffdf
fffb
002a
0018
fffe
ffe8
ffeb
ffd5
ffec
fff8
ffd3
fff7
ffef
fff4
001a
0012
0023
000b
fff7
fff1
fffc
0013
0011
001b
001b
0002
000c
fffb
ffe2
0001
0011
0029
fffd
0007
fff7
ffe5
ffd7
ffe5
0024
ffef
ffe9
0005
0006
0002
0001
000b
ffe7
0012
0026
fffe
fff1
0019
0006
ffef
0003
ffef
ffd8
fff8
0004
002f
fffd
fff7
001b
0010
fffe
fffd
0005
0001
000f
ffd8
0002
0006
fff6
fffe
fffc
fff6
ffe2
0007
ffd0
0000
0036
001d
0000
ffef
0002
0015
fffd
0011
000a
001c
0006
ffef
ffed
fffa
002c
0022
0010
0012
0027
ffea
ffe9
ffcd
fffc
ffde
0002
fffe
0008
000e
fff9
0007
ffdb
ffe7
fff3
ffe2
fff8
ffe8
0008
0006
fffc
fff0
001f
ffe8
ffef
0001
fffd
ffee
fff1
fff6
0006
fffc
001c
ffdb
ffe5
0011
ffec
ffdc
0015
ffe8
ffec
0000
0000
fff4
002d
ffee
001b
ffeb
0001
ffe6
ffeb
0012
0007
0010
0012
0008
fff9
ffff
0018
0006
ffe8
ffed
0003
000e
fffa
0010
fff8
ffeb
000e
0002
001e
0004
fff0
0011
fffe
fff8
ffe7
ffe2
fff0
000d
0025
ffd0
0003
0018
001a
001e
ffe8
fff1
000c
ffe3
ffe7
0002
0010
ffeb
fffd
ffdf
ffd9
000a
0000
0015
0003
0006
ffe4
0005
0016
000a
ffdd
fff6
0014
0005
0006
fff7
ffed
0004
0003
fff9
000c
000c
0021
fffc
fff9
001b
fff4
fffb
fff2
fffd
000c
fff3
0003
000a
fffc
ffe3
fffe
0003
0020
ffed
0005
0004
000d
000b
0006
0003
fff6
fffe
fffb
001e
0013
001e
ffee
0002
fff4
ffec
fff4
0000
002c
0033
fff2
fffc
001b
fff6
000e
fff6
0013
ffdc
0000
0025
000b
fffb
0015
001c
001e
001d
0004
ffec
ffec
0000
0004
000a
0006
ffd4
0011
000f
fff2
0010
ffec
0015
fffb
ffd3
0024
000f
ffeb
ffe1
fff5
0013
ffee
0017
0004
ffc2
000f
fff1
0008
fff8
ffec
fff4
0007
0010
001c
0000
0014
0004
0004
fff8
000d
0016
fff9
0006
ffe9
001b
ffec
0014
ffed
0011
ffe0
fff3
002a
fff9
ffee
fff5
ffea
ffe8
fffe
0007
fffe
0029
000e
0024
0030
000e
ffd9
ffed
0007
ffe5
ffb3
fff5
ffef
ffd8
fff3
fff3
ffe2
ffd6
0038
0002
0016
fffb
0018
ffed
fff4
0008
0009
ffe9
0006
fff9
ffe0
0021
000f
0013
fffc
fffa
ffde
001b
fff7
000c
0011
0023
0002
0008
ffe1
ffe9
ffda
0011
0025
0009
ffe6
ffe3
ffe5
fff6
ffe0
ffff
0007
fff2
fff0
0000
fffd
ffdb
ffed
fffb
0032
000c
fff3
0020
ffe4
001f
ffe7
ffe9
0029
0014
ffec
ffd8
ffe7
fffa
fff4
ffec
0004
ffde
0007
fff5
0008
000b
000e
fff8
ffed
0016
ffec
0011
ffdb
ffea
fffd
fff9
0005
0005
fffe
0005
fff4
ffd6
0000
0016
fff4
0015
fffc
ffe9
000b
ffe8
ffe3
0022
0012
ffd6
ffed
ffed
0002
fff1
ffdc
ffe6
0008
ffef
fff6
0003
0017
ffda
0010
ffe0
ffd4
fff7
fff4
ffef
001e
0001
0018
fff8
fff6
0023
ffea
fffc
0003
0006
0029
0019
0011
001d
ffee
001b
fff9
0023
fff0
0002
001d
fff4
0008
001b
ffb8
0007
0013
fff0
0010
fffe
0005
0005
ffec
fffa
0013
ffd6
ffe8
000d
0009
0013
0002
fff4
0010
0021
0034
fff0
ffca
0005
0024
fff6
ffe7
000b
0002
001e
fffc
000a
fff2
0009
000e
ffe2
0008
ffed
0014
000a
fff1
0014
0015
0011
fff7
ffc9
ffdf
000c
0014
fff0
001f
0000
0017
ffdd
fff0
0011
fffe
fff2
fff7
ffe6
fff3
ffeb
fff6
002b
000c
0001
0007
000b
ffe4
fff7
000e
0007
ffeb
0011
fffa
0003
fff4
0002
fffe
fffd
fff7
000d
ffeb
0003
ffdd
0011
ffee
000a
ffe4
000c
0005
ffef
ffca
ffe1
fff7
0020
0008
0016
0026
ffe4
0017
fff2
ffff
ffe3
ffea
ffd6
000e
000c
0006
ffe7
0009
ffe6
0001
0006
0009
ffda
ffec
0023
000a
fffa
001c
000b
0008
fff4
0003
0022
0002
002b
0012
ffe2
0005
000f
001c
0000
000e
001d
fff8
0002
0000
0010
fff3
0018
ffe1
fffa
000e
0019
0019
0015
fff4
fff1
ffeb
0014
fff8
fff8
0009
0003
ffff
fff6
0011
fff8
ffd9
0013
ffeb
0006
0005
000e
fffb
000e
fff2
0012
0006
001c
0005
fffb
fff9
000e
fffe
fff2
0009
fff9
ffe1
fff2
000e
0000
fffd
000f
0004
fff8
0004
fffc
0014
000b
fffb
0020
ffe6
ffe6
fff6
ffb0
ffdf
0000
0000
fffc
ffd3
001c
0008
ffe4
fffd
000f
0000
ffed
ffff
0009
ffef
fff9
0024
fffb
0014
fffb
fffb
001b
ffdf
0000
ffeb
fff4
0006
000c
ffd4
ffd0
0014
ffff
ffea
001e
000b
001f
fffa
fff4
ffe1
0014
0017
fffa
fffd
fff3
0008
0003
ffe9
fff4
000b
002a
fff6
fffb
0018
000d
0015
003f
0006
fff6
fff1
0008
0010
fff1
ffd8
0002
ffcc
0017
ffd2
0005
000d
0020
0004
0017
001f
0021
fff2
0008
ffe9
0000
0012
ffe8
0008
fff6
fff5
fffc
fff6
0025
ffe7
fffa
fffc
ffde
0009
0017
0017
fffe
ffdb
001d
0023
ffdf
000b
0006
fff1
002e
000c
0001
0022
fff2
ffed
002e
ffef
001c
0000
001d
ffdb
0012
fffc
ffe9
fff3
ffff
ffed
fff7
ffff
0019
0003
ffe0
0012
0018
0002
0008
0003
ffee
ffe5
0014
000e
ffc7
001a
0030
0003
fff3
fff4
0017
000e
0017
ffe9
fff4
fffb
0009
fff6
000f
0000
0001
0017
000c
fff6
000a
ffff
ffdf
000f
000e
ffec
fff5
000b
0005
fffb
fff5
0006
0008
fffc
0000
0004
0002
ffee
0006
0009
0001
fff4
fffc
fff1
fff0
0007
0000
ffee
000a
0013
fff9
0018
ffea
fffa
ffda
ffe3
0003
0006
000f
000f
0007
0000
0006
ffec
0030
0003
fff7
fffe
001f
0020
000a
ffe8
ffd8
ffe8
ffe3
0005
002a
002e
fffb
0017
0001
fffd
001b
fffe
fffc
ffdc
fffc
ffef
fff6
fffc
ffe2
0024
000f
ffde
fff1
fff0
000a
0024
fff0
fff3
001f
0034
0004
fff1
fff2
0008
0017
0019
fff7
ffeb
000a
000f
ffea
ffde
0026
ffe1
0012
ffd7
0009
000e
0004
ffe9
0016
0000
fff7
0005
000e
0003
0002
fff4
ffe3
000e
0008
fffe
ffe3
fff5
0009
0007
ffb1
fff3
0021
0020
fff2
0002
0010
0003
0000
fff9
0015
fffc
ffed
000a
fff9
0006
0033
fff0
ffe4
002b
0004
002c
fffb
0041
004b
0029
000b
ffff
0016
fffa
0011
ffe5
ffdc
ffeb
fff9
ffff
0001
ffd7
000a
002c
003b
ffd8
ffe2
0029
0011
fff1
000d
0002
0010
ffe2
fff1
ffe9
0014
fff4
fffe
fff7
fff5
fffc
ffef
0000
0003
ffd5
000c
0025
ffe2
0006
0014
fff2
0006
fff9
0001
ffe0
ffef
0037
ffea
0004
fff9
0002
0012
fff8
0010
0039
0004
fff1
0002
ffe9
ffef
ffdc
0000
0000
0017
0008
0012
ffcb
ffcf
001c
ffe5
fffb
0014
0000
000d
0025
0011
0038
000a
0007
000e
0014
fff3
0000
001d
0007
0006
fff8
000c
ffe5
fffe
fffe
fffc
000a
ffe0
ffec
ffe6
0010
0011
0009
fff4
0014
ffdd
fff8
ffe8
ffdf
000c
0003
000d
fffb
fffd
fff1
0023
ffe2
fff8
fffa
000f
0001
0001
ffef
fff5
ffea
ffee
0026
0017
0012
ffed
000e
0015
0017
0011
002c
0026
0018
fff1
0022
fffe
ffff
0020
0010
0007
fff3
0016
000a
ffe9
002d
fffb
fffb
fff5
ffed
000a
000d
0009
0000
0013
0028
fffb
ffcd
fff4
0010
fff4
0006
0019
fff3
ffd9
fffe
ffe7
ffe0
0009
0002
000a
ffe5
002e
000c
ffe8
0002
0023
000d
ffe9
0016
ffe5
0004
ffef
0000
fffe
ffea
fff9
ffe1
0002
0003
fffb
ffff
0028
ffdd
ffe6
ffd7
0006
0000
0000
ffda
ffee
0000
000c
0020
0013
ffe8
0008
000c
0010
001f
0004
0031
0029
ffe6
ffe7
0009
0033
ffcc
ffff
001d
fffb
fffd
ffe3
fff6
fff4
fff7
001b
fffc
0038
000a
fff8
0011
ffbe
fff5
000e
000e
ffe0
fff2
0001
fffc
fff0
000b
fff1
001a
ffe9
ffd1
fffc
0029
fff8
ffff
001a
003d
fffb
ffff
000b
0000
ffdd
ffe6
ffe6
002c
0021
000b
000d
fffc
000e
ffee
002d
0009
ffdf
ffe3
0000
001b
0026
fff7
ffd1
fff7
fff6
0009
0004
000d
0012
0000
ffe6
0019
ffff
ffe0
fffe
fffc
fff7
0003
0019
0013
001b
001f
ffef
ffda
fff1
0025
0009
000d
002c
fff0
fff0
fffe
ffd9
0013
0017
ffff
ffed
fff7
fff5
fff1
0009
ffdf
0007
0019
fff2
0012
fffb
ffe6
0013
fff5
0010
0005
0015
fff4
001d
fff9
fff0
fff6
0006
fff4
ffe8
ffe9
0029
000b
001f
fffa
0017
0008
ffe2
0016
ffe9
fff9
000f
001f
0000
ffef
ffe9
0009
0000
0000
0006
0016
0014
0025
fff5
000f
ffec
0004
ffff
ffe2
0000
001a
0000
0010
ffea
0002
ffeb
fff4
fff4
fffa
000f
0008
0001
fff0
ffff
0006
0010
0001
0038
ffea
0007
000e
ffe8
0009
ffff
ffd7
fff3
fff2
ffea
ffef
ffef
fffc
0020
0012
fffc
0016
000c
001a
ffea
fff7
ffdd
ffe2
ffde
000c
0019
0003
fff5
0000
fff3
ffef
0026
0017
000b
0001
000c
0002
fffe
0004
ffd3
fff0
0006
ffce
ffef
000a
000f
fff2
0018
0007
001c
fff7
0024
fff9
ffec
fff1
ffe1
000a
000d
0014
fffb
fff8
001f
0023
fff2
0014
0022
0008
fff6
fff6
000e
0005
ffed
fffc
fff4
001a
0014
0026
ffec
ffdb
0008
0018
0013
000f
fff5
0008
0000
fffd
ffed
0008
fffa
0020
000c
ffe2
fff8
0009
0015
0022
fffc
fff5
0017
fff7
ffec
ffeb
fff9
ffd2
001d
ffeb
ffe9
0006
fff9
ffdf
0010
ffe2
0007
0001
0016
fff2
000b
001a
fff3
ffee
0013
0018
0001
0010
000d
fffd
fffe
002c
000c
0008
0012
001d
0013
000b
ffeb
0010
ffd1
0002
ffda
fff6
fffd
0012
001d
ffea
0001
ffdd
002b
0003
0000
000e
0024
fffd
0016
fff8
0010
fff5
000f
000e
fff7
fff6
fffc
000f
ffeb
0005
0003
ffef
0001
001e
0021
ffeb
0015
fff8
000b
fffd
001f
ffe5
003a
001d
001f
ffeb
fffc
0006
fff2
000b
0014
0012
ffff
ffe5
fff5
ffee
0006
0012
fffa
fffc
0006
0022
0029
ffd4
ffd7
fff7
ffc4
0035
000e
0001
fff7
0005
ffef
0006
fffd
ffe0
0002
0033
0000
000a
fff9
0015
002e
0027
0002
002e
002e
ffe9
001b
0006
fff3
fffa
ffe4
000d
ffea
ffe1
0002
fff1
ffe2
0019
0008
fffb
0002
fff3
0037
0015
ffff
000b
0015
fff8
ffff
000f
ffe4
0019
0007
0014
ffd1
000b
fff5
0003
001a
002e
0019
0029
0017
