0002
0001
000d
0000
ffff
fffd
0017
fff6
ffea
fff5
ffe7
ffed
0004
000e
000d
0010
ffe9
ffee
fffa
0000
ffe7
0010
ffff
0005
fffd
ffff
0007
0001
000b
0003
000f
0004
0001
000c
0006
fff8
fff8
fff6
ffe4
0006
fff2
fff8
0007
0006
ffff
ffe1
fff2
0002
0005
0006
0007
000f
fff7
0006
0002
0003
0000
fffd
fffa
fffb
0014
000c
fff8
fffa
0015
0005
0009
fff8
ffe7
0011
000c
fff9
0000
0013
0005
fffc
fff7
ffec
0007
000d
fffd
0002
0000
0006
0003
000b
fffb
fffa
0002
0000
ffe7
0016
fffd
0008
fff3
0003
000d
0000
fff6
000a
0011
fff6
fffc
ffff
0004
fff3
fff7
000b
0004
0008
000b
0000
000b
0002
fff7
000a
fff4
fffa
000b
fffa
000e
0002
0006
0005
0002
fff6
ffe8
0013
0013
fff9
fffb
0001
0003
0006
fff9
0003
fffe
0006
fffe
ffff
0006
0008
fff4
0007
fff7
0001
fff5
0000
fff9
ffff
fff4
fff6
fffe
fffe
fffa
0006
0003
fff8
fffe
fffa
0003
fff3
0006
fff9
0000
0008
0004
0000
0004
0008
fff8
fffd
0002
fff0
fffa
ffe9
0000
000b
000c
000e
fffe
0007
fffa
fff6
fffa
fff3
fff8
000e
0000
000c
fff0
fff9
0006
fffb
0002
0000
000b
0004
0003
0011
0004
ffff
fffc
0009
fff8
0000
0001
0009
000a
fffc
fffd
fffd
0004
0000
fff4
fff8
fffe
fffc
0003
000c
fffb
0002
0002
0000
0002
0003
0003
000e
0001
0014
0015
fffd
fffd
0000
fffb
0000
fffc
fff7
fff8
fffc
0002
0000
fff5
000a
fffc
0018
ffee
0002
0007
000e
0000
ffff
0006
0008
0007
0012
fffb
000a
000b
fff9
0006
fffb
fffe
ffee
fff6
0003
fffe
0007
fffc
0002
0000
0004
0005
000d
000a
0007
ffff
0001
fffb
0000
fffd
ffff
0000
fffe
ffff
fffc
000e
fffd
fffd
fff6
fffd
fffe
0006
0005
0001
fff3
0000
0004
fff3
fff4
000e
0003
fff8
0000
ffff
0009
fff9
0007
000a
0001
0002
fff8
000d
fff7
ffff
fffb
fff6
fff6
0009
0001
0009
fffb
0007
ffff
0000
0007
0000
0000
0002
fffa
0000
fff8
fffd
fffb
0002
ffff
000c
0007
fffe
0007
fffe
0000
fffa
fff7
0000
0000
0009
fffb
0001
fff9
fff5
0005
ffe9
0010
ffff
fff9
0000
0000
fffc
0002
fffa
fff7
0000
fff9
fffb
0005
ffff
fff9
fff3
0000
fff9
0006
fff9
ffff
0009
fffc
000a
0003
fff8
ffff
ffff
fffd
000a
0009
fff7
0005
0003
0007
fffa
fffe
fff6
000a
000b
0009
fffc
fffa
0000
fffb
fffe
0000
fff7
0004
0006
fffa
0000
fff9
0001
fff5
0003
0007
0005
0004
0000
fffb
ffe2
0001
fff5
0000
000c
0013
0007
0003
000e
0003
fff5
0008
fff8
fffe
0003
0010
000b
fff9
0000
0001
0007
ffff
0007
000c
000d
fff5
0004
000b
0004
fff4
0000
000c
0000
0006
000c
0011
ffff
fffe
0002
0008
0008
ffff
0004
0000
000a
fff1
fff9
fff8
0003
fff9
fffe
fffc
0007
0000
fffe
0001
000b
000e
0005
0007
fffe
000a
000d
0008
fff9
fffe
fff9
ffff
0000
0002
fffc
0006
0003
000b
fffb
0001
000c
000f
fff6
0009
0000
0019
fff9
0007
fff9
fff8
000c
fffb
fffe
fff6
0001
0000
000b
fffb
0002
000b
fff7
0003
0000
0005
fffc
0007
fff1
0001
0005
0009
0003
000e
0011
0001
0007
fff2
fff4
fffc
fff8
0008
0000
0004
0006
fff7
fffb
0004
0004
0000
0000
0002
fffe
fffe
fff6
0007
0007
fff8
0009
fffe
0004
000b
0004
0000
0012
000a
0005
fff4
fffa
0004
fffc
0004
0000
fffb
fffd
0003
0008
fffe
0004
0004
0006
fffb
fff7
0007
0009
fff6
fffd
fffd
000a
0008
0000
fff9
fff9
fff5
ffff
0005
0009
0008
0005
ffff
0001
fff4
0000
ffff
0000
0003
0005
fffa
0004
0008
0002
000a
fffb
fff5
0007
fff6
0006
fffb
fff7
0001
fffc
fff9
fff6
0000
0010
0003
fffc
fff8
fffd
fff9
0000
0004
fff8
0004
0006
000b
0001
0004
0010
000a
fffb
fff6
0001
fff1
fffd
0007
0000
0007
fffe
fffd
0002
fffb
0003
fff7
0006
fffb
fffe
fffe
fffb
fff4
000c
0003
0002
0001
0005
fffe
000d
fffe
fff8
000c
0000
fff5
000a
ffff
fffb
0001
fffa
0005
fff6
000c
0005
fffb
0007
fff8
0005
fff5
0004
fff1
0001
0003
fffd
0003
000b
fffe
0009
0013
fff7
0004
fff0
fffe
0003
0001
0007
fffb
fffb
fff3
0000
0008
0000
fff8
0006
0005
ffff
fffd
0006
0004
fffe
fffd
fff9
0004
0000
fff3
0000
fffb
ffff
000c
fff4
0003
000c
0000
fff7
0006
0009
000e
fff5
ffed
0010
0000
fffd
fff7
fffe
fff2
0002
0006
0016
fff4
000b
000b
fffa
ffe6
0007
0008
0004
000d
fff6
0002
000c
fff5
ffef
fff2
0006
0007
ffe2
000a
0019
fffc
0000
0004
0004
fff8
fffe
0004
0001
0002
0002
fff6
0003
0008
0010
000f
000f
0000
fff3
ffff
000c
0005
ffff
ffeb
ffff
ffed
fff7
ffff
0004
fff4
fff9
0003
0000
fffb
0005
0002
fffa
0004
fff7
fff8
ffeb
ffed
fff4
0000
fffc
000a
000b
fffd
0000
0006
ffe9
fff5
fffa
0007
fff4
fffa
0004
fffd
0007
0000
0003
0006
fffb
0005
fff7
fffe
ffe8
fff3
fff4
0013
0007
000a
fff6
ffec
fff3
0000
000d
000c
000f
0003
0010
ffff
fff6
fff1
fffb
0004
0009
0008
0008
0004
000d
fff2
ffed
fffc
0011
0003
ffee
ffe9
ffec
0003
000f
ffef
ffcc
0000
0000
fffd
0014
fffb
0009
0013
0003
fff5
fff7
0006
fffa
0009
0000
0003
fffe
fffb
0000
0001
fffd
fff0
fff1
ffef
fff7
0004
000b
ffea
ffe8
fffe
0002
0000
fff2
fff2
0005
000f
0006
0000
fff5
fff7
0005
0008
0000
0008
000e
fffd
0006
0006
fff2
fff0
fff3
0009
fff8
ffe7
0008
0000
ffeb
0004
0007
ffe5
0006
0001
fffe
0006
fffe
0006
0000
fff7
0002
0008
0009
000d
ffff
0008
0007
0014
ffe9
ffee
0003
0002
fff7
fff0
0006
fffb
0000
0000
fff7
0002
fffd
0002
0017
ffee
fffe
fffa
fffd
fffd
ffff
ffff
0006
0002
0001
fffc
0001
0007
0000
fff9
0001
fff5
000f
0001
fffb
0003
fff8
0009
0007
fffc
0004
ffff
0005
fff6
0000
fffe
0000
fffb
fffe
0000
000d
000c
0005
ffff
fff9
fff4
fffb
fffe
0005
0004
000e
fffe
0002
fffc
0006
fffd
0001
0006
0009
0008
ffef
ffff
0003
ffff
0009
0004
0001
0002
0007
0004
fff7
0000
fff8
ffec
0002
000f
fffe
fff7
ffff
fff7
fffd
fff8
fff5
fffe
fffb
0009
0008
000b
fffa
fffa
0004
0000
0009
fffe
0004
000e
0001
0003
fffa
0004
fffc
fffa
fff7
0015
fffe
0002
fffc
0005
fff8
0004
fff7
000a
0001
000a
000c
0005
fff9
0001
0008
000f
0008
fffa
0007
ffff
0000
0003
fffc
0007
fffa
0008
0008
fffb
fff7
fff7
fff5
0017
0001
fff9
fffe
0016
fffe
fffb
fffa
fffe
fffc
000a
0004
0007
ffff
fffe
0001
0009
0004
0002
fffa
0002
0004
0000
fff4
fff3
0000
0005
fffc
000c
0006
fffd
fff9
fffe
0002
0005
0002
000c
0000
0003
0007
0007
fffb
0006
0003
fffd
fff7
000a
000d
0004
fffb
0003
0000
0000
fffa
0009
0008
0000
0007
0004
fffb
0006
fffd
000e
0004
0003
0004
fff5
0005
fffe
ffff
ffff
0001
0000
0007
fffa
0008
0001
0003
000a
fff9
fff3
0007
fffd
0008
fffd
0006
ffff
000e
0006
fffb
0000
fffd
0000
0007
0004
0007
0000
fff8
fffe
fff5
0005
0005
ffff
fff5
fffa
0001
000c
0006
fff3
fffa
ffff
fffd
fff7
0000
0003
0002
fffa
0003
0003
ffff
0000
0003
fffe
fffd
ffff
fff7
fff4
fffc
0003
0000
0008
0000
0001
fffd
0009
0007
0005
0000
0007
0001
0008
fff8
fff1
0000
fffd
000d
fffd
0001
fffc
000c
000a
0003
fff7
0005
0000
0007
0012
fff9
0001
0003
0006
0000
0006
0007
000f
fffa
0004
0003
fff6
0005
000a
0001
ffff
fffe
000c
0009
000a
0009
000a
fffd
000d
0003
0000
0004
0005
0008
fffb
fffb
0003
fffe
0002
0005
0000
fffb
fffc
0000
000e
fffd
fff4
0011
fffb
0001
0009
fff8
0000
fffd
0006
fffd
fffc
fffc
0009
0004
0005
ffff
fffd
fffb
fffb
0001
fff9
0005
0002
0014
fffe
0004
ffff
0004
0000
000a
0004
000c
0002
0001
0006
fff1
fff4
fff7
0001
0000
0000
0011
000a
000a
000a
fff7
0002
fff8
fff8
000b
ffff
000a
fffb
0001
fffc
fff2
0001
001a
fffc
0010
0000
0001
fffc
000d
0007
fffc
fff1
000a
ffff
fffb
0000
0000
fffa
fff8
fff9
0002
fff6
0007
fffd
0000
fffe
0001
0004
fffb
fffd
000a
0000
0005
fff8
0002
fff8
0001
0000
fffc
0000
0009
fffd
fffc
0007
0006
fffe
fffb
fffd
fff9
0000
0005
0000
ffff
ffff
fff1
fffb
0001
0011
0008
0004
000f
0000
0000
fffb
fff2
fffb
0005
fffa
0006
fff2
fffa
0004
0003
0000
0000
0002
0002
0005
fff9
ffff
0002
0000
fff7
fffc
fffb
0018
000c
fffb
0011
0000
0001
0002
0009
000a
fffd
fff8
0003
fffb
fff7
fffd
0005
0002
0005
0003
0000
0005
ffff
000d
fffc
fffc
fff6
0003
fff7
0000
fff5
0000
0006
fff5
fff8
0007
fff9
0001
0000
0004
fff5
0004
ffff
0002
0005
0002
0008
0000
0008
0000
fff6
0000
fff4
fff4
0004
000b
0008
0001
0002
fffe
0006
ffff
0004
ffed
0000
000b
0008
fffe
fffc
fffe
0000
0000
0009
0002
fff7
fff9
0005
0004
0005
0005
fff5
fff1
000c
0005
0006
fffe
0006
0005
ffe9
0000
0005
ffed
0003
0005
fffb
000e
fff7
ffff
0009
0000
0000
0005
fff8
0008
0008
fffd
fffc
0002
0002
fffa
fff8
fffe
0007
0008
fff6
0015
0005
0002
0002
0001
0019
fff9
fff9
0007
0006
fffa
fffe
fffd
0000
0000
ffff
fff5
fff8
fffa
ffee
0005
0010
0002
0005
0002
001d
fff9
fff3
fffd
fffa
0004
0004
000b
0007
000e
0009
0003
0003
fff8
0006
0000
fff8
fffa
fffa
fffc
0000
0003
0001
fffe
0009
000c
0007
fffe
fff1
fffc
fff3
fff9
ffff
0000
000e
0011
0014
0011
0015
0008
0005
000a
ffff
fff8
fffe
fff7
ffff
0007
0004
fffb
0005
000b
0000
fffc
000c
fffe
fff9
0006
ffff
fff2
fff4
000f
000c
0001
0003
ffff
0000
000d
000f
ffff
fffd
0001
0002
fffd
0003
0011
0002
fffc
0003
000c
0000
fff6
fffb
fffd
0004
000e
fff6
ffe8
0008
fff9
fffa
0005
0009
0004
fff7
0004
0000
fffe
fffe
0002
fff6
0000
0005
0005
fff0
0000
0004
0009
0004
0006
fffa
ffee
000e
0005
ffea
fffe
0000
fff0
fffc
0007
0005
000d
0001
0008
ffff
0004
fff6
fff5
0000
fff3
fff5
0006
ffef
fffc
fff8
fffa
000a
0008
0012
0000
0009
0009
fff8
0009
fff4
000a
0002
0006
fff1
0000
fff2
000e
fff9
0008
0003
0001
fffb
fffb
fff6
fff1
0000
0001
ffed
000b
0008
0004
000c
0009
0003
fffc
fffe
fff6
0009
0000
0001
fffa
000a
ffed
0012
0000
0004
0004
ffff
0000
0005
fff8
fff8
fffc
0009
0006
ffef
0003
fffe
0005
0000
000b
fff1
0009
0012
0005
000c
fff6
fffe
000a
fffc
fff7
0011
0006
fffe
0007
0006
0003
0001
fff7
fffb
ffef
0000
0002
0000
0014
ffff
fff5
fffd
0006
0010
0001
001b
0002
000f
fff5
fff2
fff4
fffb
0001
0005
0006
000e
0005
0000
0006
0001
0001
fffa
fffb
0001
ffff
fff8
0011
fffc
0008
fff8
0000
fffa
000b
0008
0000
0005
0003
fff4
0000
0014
fff8
0002
fffe
000b
fff8
fffb
fff8
0002
0001
0004
ffff
fffe
fff3
ffe7
0000
0002
000b
0008
0000
0008
0010
0008
0015
0001
0006
0004
0003
fff8
000c
fff6
fffa
fffd
fffc
ffff
fffc
fff5
0003
fffe
0006
fffc
0001
fff8
fff9
0004
000d
fffe
fffd
000f
0002
0004
0013
0000
fffb
fffc
0002
fff9
000a
fff8
0002
fff8
fffd
0001
fffd
0001
fffa
0003
fffc
fffe
fffd
0011
0006
0001
fff6
fff3
fffb
000e
0001
0003
0007
fffb
fffa
0000
fffc
fff6
000e
fff1
fffc
0000
fffe
0000
fff7
fff8
fffc
fff0
ffef
0000
fff8
0005
000e
000a
0000
0001
fffb
fffa
fffe
ffef
ffff
0001
0008
0007
ffff
000f
fffa
fff5
0001
0004
0002
fff9
fff8
fff7
fffd
fffc
fffd
fffd
fff9
0002
000b
0017
ffff
0009
ffff
0003
fffb
0001
0006
0009
fff9
fffc
0000
0009
fff1
ffff
0007
fffd
fffc
fffa
fffc
0001
0005
fffe
0004
fff5
0004
000a
000d
fffd
0002
fffa
fff3
0002
fffe
0006
0001
fffa
0004
fff5
fff2
000c
0000
fffa
0003
0004
0007
fffb
0000
0004
000d
0010
000c
0004
000d
fff9
fffe
fff9
0000
fffa
ffff
fffe
0000
0002
fffc
0004
fffb
fffd
0008
fffc
000d
fff9
0003
000b
0007
fff7
0000
fff8
fffe
000a
0005
fffe
000e
fffe
0001
fff6
fff3
fffc
0004
fffc
fff8
0005
0003
0003
ffff
fff8
fffd
0002
0007
fff7
fff7
0001
0000
ffee
fff1
0008
fffc
0002
0009
0005
0004
0004
000a
ffec
0000
fffe
0000
0004
000c
0002
ffff
0000
fff8
fff1
fffe
fff4
000b
0004
0000
fff4
fffe
fff0
0008
fffc
fffa
0017
0006
0007
0000
fffe
0003
0008
0004
ffff
fffc
0002
fffb
fff4
000c
0003
0003
0002
fffb
fff7
ffef
000a
0002
fff8
ffef
fff7
0009
fff6
0001
0014
000d
0001
0010
0000
fff8
fff9
0007
ffff
0003
0009
fff7
fff3
fffd
0007
000e
0000
ffef
0001
fff8
fffa
0001
fffd
0004
0000
ffef
0004
fff7
0004
0006
0005
0003
000d
000b
ffef
fffb
ffff
fffd
0005
fffe
fffa
0002
000d
0001
0001
0006
0003
0009
fffc
0000
0002
0012
fffb
ffe2
fffd
0004
ffec
ffff
ffff
0015
0006
fff4
0005
fffd
0000
0012
0006
0004
ffee
0006
ffe6
fff1
fff6
0003
0002
000c
fffc
0011
0009
0004
0003
0001
fff9
0004
ffd9
fffc
fffb
0009
0001
fff8
0000
ffff
0006
001b
0006
000f
ffe7
0006
ffed
fffc
fff1
fff9
fffc
000d
0004
0002
0001
fff8
000f
000f
fffe
fffb
fff2
fffa
0002
0003
fff7
0009
0009
0008
0000
0000
000c
0008
fffd
0005
fffb
fff3
0000
fff9
0007
0006
0006
000a
0001
000d
fffd
0013
fffe
0000
0000
0005
0006
0007
0009
0003
0003
ffff
0000
fffd
0004
fff9
fff4
fffe
fff3
fff1
000a
0001
fffc
fff8
fff6
0010
fffa
000b
fffd
ffff
ffff
0002
0003
0009
0001
0008
0005
0002
fff6
0013
fffd
0000
000a
fffc
000b
0002
fff8
fffd
ffff
0015
fffb
0000
0002
fff8
0002
ffff
fffd
fffc
fff5
fff6
0005
0001
fff6
0000
ffef
0008
000a
000f
0007
fffe
000e
0000
fff8
fff9
0004
0006
fff8
0002
fff2
0007
ffe4
ffe5
0002
0002
ffff
fffe
fffe
fff8
fffe
0002
fff6
0004
0004
ffff
fff8
0000
0003
fffe
ffff
0010
000e
fffa
fff8
0009
fff9
fff8
fff9
0004
fff7
0001
ffe8
0005
0004
0004
000e
0001
0006
0002
ffff
0003
0000
fff6
0000
ffff
ffff
0000
fff8
0003
0018
0000
fff3
fff5
fffb
0009
000d
fff7
fffb
0002
000b
fffb
0005
000e
0000
0000
000f
0004
fffa
fff1
fff2
0005
fffc
ffed
ffff
0013
fffb
fffc
fff1
fffb
0010
fff3
fff8
0000
000d
fffb
ffef
fffb
0001
0006
fffb
0008
ffff
fff9
0001
fff9
ffff
fff6
0004
0002
fffb
0002
0007
0001
fff8
0012
000e
fff7
fff9
0008
fffd
ffed
0004
000e
fffb
0003
0002
0007
fff5
000a
0006
fffe
0006
0006
fffc
fffa
0000
0003
000f
0003
fffd
ffe8
0007
0005
fffa
fff3
000a
fff4
fffb
000c
000d
0000
0003
0004
0000
0000
fffc
fff5
fffb
fffa
0006
000d
fff8
0002
000b
fff9
0003
ffea
0002
fffa
0000
0000
fff5
ffea
0000
fffb
0004
0004
0001
0003
0006
0005
0012
fff7
0005
0000
0000
fffd
0000
0000
0005
fffd
0000
0000
000a
fffd
ffff
fff3
ffe7
fff4
fff5
fff9
0000
0006
0006
fffa
000f
0002
000a
0005
0011
fff8
fffd
fff9
0002
fff7
0007
fff9
0002
0007
0005
000a
000a
ffe8
ffef
0004
0000
fff8
0004
000b
fffb
0003
000b
ffff
0011
0004
fff8
0008
fffd
fffc
fffd
fff9
fff9
fffb
0004
0001
fffd
fffb
000d
0007
0011
fff8
fff6
ffee
fffb
fffb
fff9
fffe
fff7
fffc
0000
0007
0001
0013
fffd
0003
fff8
fffd
0002
0000
fffb
0001
0001
0010
0012
0002
0011
0003
0008
fff9
fffa
fff8
000a
fff0
fff6
0003
0008
fffd
0006
000e
fffd
0002
fffc
0006
fffd
fff7
fffd
fffb
0000
fff9
0004
0004
0006
0005
0007
ffff
ffee
0002
000d
fff2
fffe
fffd
fffe
fffe
0003
0007
000e
ffee
fff3
0028
0002
0005
fff6
fff9
fffc
0009
0000
0001
fffe
0001
fff5
0000
000b
fffe
0000
0007
0000
fffb
0007
fff8
0001
fff6
0003
0004
000d
0003
fff7
0010
0004
000e
0000
fffe
fffa
0004
0000
fff7
0004
0002
fff9
0000
fffa
0005
0006
0009
0000
fff8
0000
fff4
fffb
fff7
fffd
0003
0010
fff4
0003
0000
ffff
000c
ffff
ffff
fffb
0007
0001
0004
0000
fffc
0007
fff8
fffa
fffe
0001
0005
fffb
fffa
fffd
0006
0002
fff5
0005
fff2
fff8
0008
fffb
fffc
0001
0004
0000
000a
0006
0002
fff8
fffb
fff4
0000
0000
000b
0000
fff6
000b
0002
fff4
ffff
0008
fff8
ffff
0001
0005
0000
0002
0001
0008
fff9
fffe
0000
fff9
fff9
0002
fffc
0000
fffd
000f
fffd
ffff
0005
fffb
fffe
0001
fff2
0002
0002
fffb
0008
0002
0003
000c
ffff
0002
fffd
000d
0001
0000
fffb
0002
0005
ffff
fffd
ffff
0001
fffe
0004
0002
0004
0001
0009
0008
0008
fffa
0000
fffe
fffb
fff9
0000
0005
fffb
0000
0000
0001
0000
fffe
fffd
0004
fff8
fff9
fff8
0006
0007
fffb
0002
fffa
0005
ffff
000d
0000
fffe
0000
0004
0002
0001
fff0
0000
0000
0007
ffff
0003
0004
fffb
000a
fffa
0000
fffd
ffff
ffff
0009
0000
fff7
fff5
0000
000c
ffff
0011
0005
0008
ffff
0001
0000
fff4
fff4
fff4
0000
fffe
0007
0001
0000
fff8
000e
fffc
0000
0005
000c
ffff
fffb
fffd
fffc
fff7
0000
fff5
0001
000c
000a
000e
0001
fffa
0000
0003
ffde
0000
fff7
000a
ffff
000b
0000
0001
fffd
0000
fffb
0010
0005
0008
0002
0002
fff9
0000
fff4
fff0
fffe
0006
0002
0007
0003
fffc
fff9
fffa
fff0
fffc
0007
0003
0003
0003
fffa
0000
0000
0000
0005
0003
0014
0008
fffa
0007
0000
fffe
fffb
fff1
0001
ffff
000b
fff7
fffe
fffa
0009
0000
fffa
0000
0007
000e
fff9
fffc
000b
0009
ffed
0001
000b
0001
0000
0002
0000
0007
fffb
fff6
fffd
0000
0013
0001
0006
0003
0001
fffd
0005
fff3
fff9
fff7
fffd
0004
fffe
fffc
0005
0002
ffff
fffe
ffff
ffff
fffb
0005
0006
0003
fff5
fffb
fff7
fffd
000d
000f
000e
000f
ffff
fffe
fff9
fffb
ffee
fff9
0000
0006
0006
0001
0004
0001
0000
fffe
fff9
000a
fff9
ffff
0003
0001
0000
000f
0004
0006
fffb
0008
000a
fff3
fff8
ffff
0000
fffe
fff2
0001
0004
fff6
0006
fffb
0007
fff9
0003
ffff
0004
000a
fff5
fffa
0004
fffe
ffff
0008
0000
0000
0006
0009
0000
0002
0001
0006
fff4
ffec
fffc
fff2
0001
0009
0008
fffe
fff5
0008
fffb
fff2
fffd
0009
fff5
0000
0006
fffc
0000
fff8
fffb
fffe
0004
0004
fff8
0007
0002
fffb
0003
0003
000c
0001
fffa
fffd
0004
fff8
fff9
0000
0006
fffe
fffd
0001
0003
0001
000d
0004
0005
0008
fffd
0000
0004
000a
0010
000e
0002
fffa
0003
fff7
fff8
fff1
0005
0015
fffa
000d
fff9
000a
fffe
fffe
000e
0003
0005
0003
0007
0000
0005
fffc
fffa
fffd
000f
0008
fffe
0002
fffb
fff5
0007
fff6
fff8
fffa
fff8
fffd
000a
0014
0003
0017
0009
fff3
0000
000b
0001
fffc
0004
fff9
0004
ffff
fffa
0000
fffa
fffa
fff8
0005
0004
0002
0006
000c
000b
0000
0010
ffef
0007
ffff
fffc
0004
0009
0005
fffe
0000
0000
0000
fffb
0006
fffa
fffa
0009
0000
0006
fff0
fff8
0001
0006
fffd
0001
0007
0011
000a
fff4
ffff
fffd
0000
0003
0009
0006
0003
0005
fffb
0000
0002
fff8
fffe
0002
0000
fffd
ffff
0009
000e
0000
ffed
0003
fffa
ffff
000b
0010
fff6
ffff
fffc
fffc
fffc
0004
0009
fffc
0003
fff4
fff9
0003
fff8
0007
0004
0002
0004
ffee
0002
0005
fff5
0006
0000
0000
0000
fff9
0000
0003
fff7
fffd
0000
0006
fffd
fff8
fffe
000a
0009
fff8
fffc
0004
0008
ffff
0002
fffe
0004
fff6
fffa
fffe
0007
0004
0008
0002
0004
0008
0000
000a
fff9
0000
0002
0001
fffb
0000
0007
fff2
0005
0004
fffb
fff3
0002
fffe
fffe
ffff
0000
fff8
0006
0002
fffa
fffb
fff4
0005
0000
0005
fff7
000f
0002
ffff
fff6
ffff
fffa
000b
fffb
0009
0000
0006
0008
fff5
ffff
0001
fffc
fff4
fffe
0001
fffc
fff1
fff1
0000
fffd
0005
0000
fffc
0006
0004
000b
000a
fffa
ffff
fff2
fffe
0009
000d
0002
0004
0005
0004
fffe
fffc
fffb
0000
fff9
fff8
0000
fff0
fff2
0005
0006
fff6
0006
fff8
fffc
0005
0006
ffff
fffd
fffb
0001
fff4
0008
000e
0010
0004
0010
0003
000b
000a
0000
fffc
fffa
fffe
fff7
ffff
fffd
fffc
000b
0006
000a
0007
0002
0004
fff6
0005
0001
fff7
0008
0016
0005
0000
0011
0007
0005
0003
fffc
fffc
0002
0000
ffff
0009
fffb
0002
ffff
fffa
fffd
fffe
ffff
fffb
0004
fff8
fff5
fffc
000a
fffe
0006
000d
0000
fff6
fff6
0000
fffa
0000
0009
0003
fffe
0008
000c
0000
fffd
ffec
ffff
0002
0008
000d
0009
0002
fffa
fff9
0008
fff8
fffe
fff9
000a
fffc
001b
fffa
fff6
0000
fffa
0009
0015
0011
0006
000d
0013
000a
0001
fff9
0003
0004
000d
0008
0003
0000
0007
0000
fff0
fffb
0001
0006
0000
0000
0005
0003
0001
fff9
fffa
fffd
0008
0012
001b
0018
0029
000b
fffa
0010
000d
fff9
0005
0008
0008
fffa
0007
0011
fffb
ffe6
ffe3
fffc
fffb
0003
fff5
fff1
fff8
fff7
fff1
fff9
0000
0016
0011
0005
fff8
ffff
0003
0004
fff7
fff0
fffa
0008
fff3
fff8
0000
0000
0000
fff1
ffff
fff3
ffe5
fff3
0002
fff1
0000
fffa
fff6
fffe
0003
0003
fff0
fff0
fff9
fffc
001a
0000
fff1
fff9
0002
fffc
0000
fffb
fffa
fff4
0000
fff3
0009
000b
0000
fff7
ffec
fffd
fffe
0000
0004
0000
0004
ffea
ffff
0000
fff4
0002
0015
fffe
0002
0008
0000
fff3
000c
0002
fff6
fff1
fff2
ffff
fffe
0008
000c
fffd
0002
fff1
fff9
0005
0005
0007
0007
ffe7
ffe0
ffe6
fff0
fff9
0016
0004
ffff
0005
fff9
fff8
fff9
0001
fff4
ffee
0002
0006
0002
0007
fffd
000b
fffc
fffd
0000
fff1
0000
ffed
fffc
ffe4
ffe7
ffdd
ffee
0004
0000
0012
0007
fff2
0009
0004
fffb
0000
ffff
0005
0002
fffe
0006
0006
0003
0002
000b
fff1
0006
000d
fffa
0007
0001
fff6
0007
fffd
fff6
0008
fffd
0004
000e
fffb
ffff
ffef
000e
000a
fffa
0001
0004
0007
0002
fff0
0000
fff8
0002
fffb
fffe
0005
0011
fffe
fff6
fffc
000f
000f
000e
0000
fffe
fff8
0000
0002
0000
0005
0008
fff7
ffeb
0008
0002
000a
fffd
fffc
0000
fffe
0003
0002
0002
000b
000b
fff9
ffdf
fff9
0008
0006
000c
fffb
fffc
0000
0009
0015
0000
0006
0003
000c
000b
0004
0002
0013
ffff
fffd
fff3
0000
fff8
fffb
0006
0004
0009
0009
ffe4
0004
0011
0000
0002
fffb
0001
fffb
fffd
0000
0011
000a
0004
0010
0006
0004
fffd
0006
fffe
0003
fff6
000e
0005
0006
0004
000a
0009
0000
fffd
000c
0001
fffe
fff8
fff6
fffb
0008
ffff
fff7
0009
0007
0006
0005
0004
000a
0000
fff7
fff9
fff5
0004
000c
fff5
fff9
ffff
fffa
0004
0000
0002
0000
0010
0002
ffff
0004
fffc
0002
0009
0000
0008
0003
fffa
fffe
ffff
000d
0007
000a
fff9
0001
fffe
0001
0002
0005
0009
0001
0008
fffe
0008
fffe
0004
0007
000a
000b
0008
ffff
0000
000b
0000
fff5
fff9
fffb
fffe
000a
fffe
fffb
0011
0002
fffb
fff8
0001
0001
0003
fffd
fff9
fffd
fffd
fffd
0002
0009
0002
fffb
fff3
fff6
000a
0004
0003
0007
0004
0002
0000
0006
0001
fffa
ffff
fffc
0004
fffd
0006
0008
ffff
fffc
fff1
fffc
0000
ffff
0006
fffe
0000
0015
fffd
fffd
fff9
0002
ffee
fffe
fffc
000c
0004
0004
0007
fffe
0002
000e
fff4
0000
0006
0000
0009
0002
fffc
0004
fffc
0002
0007
fffb
fffb
fffb
fffa
000a
fffa
0003
0003
0000
0007
000b
fffc
0000
0003
0003
ffff
fffa
fff6
0005
0005
0008
ffff
fff0
0009
0007
fffc
fff2
fff3
fff2
fffe
fff7
fffa
fffd
fffe
0004
000a
fff2
0004
ffee
fff8
fff5
fff8
0006
fffc
fffe
fffe
fff6
0002
fffb
0007
0002
0007
fff6
fff6
fffe
fffd
fff8
0000
0001
0002
000d
fff3
0011
0023
0016
ffff
0004
ffec
0004
ffe6
0003
0028
0027
000d
fffe
0006
ffe9
fff9
000a
000b
fffd
fff1
fff2
fffa
0004
0009
fffb
ffee
fff3
fff9
0002
fffb
000a
0010
0001
fffb
fffc
0011
0001
fffe
ffe4
fff9
0000
ffed
ffec
ffee
0007
ffff
fffe
fff0
fff9
0006
0006
0007
fffb
000b
0003
ffe9
ffda
0000
000f
001a
0008
ffee
fff0
fffa
0010
0003
fff5
fffb
fffd
000f
000e
ffed
fffe
0012
ffff
fff8
0004
0002
fff9
0000
fffc
0004
0004
fff3
0006
0002
fffa
0008
0009
fff7
000e
000d
0009
fffa
fffb
0009
0001
fff3
fff6
000e
fff9
fffd
000b
fffd
fffc
0003
0002
0004
0010
fffe
fff3
0008
fff0
0007
0000
fffa
0011
000e
ffff
000c
0010
ffef
fffd
fff7
0004
ffff
fff8
0012
000f
fffe
fffb
0000
0000
0004
0014
0000
0007
0009
0000
0006
ffef
0005
ffee
0006
000c
fff6
0001
fffb
0001
fff3
0001
0012
0006
fff4
fff9
0008
fff9
fffd
0004
fffc
ffff
0006
0013
0004
0017
fff9
fff9
fff4
fffa
0000
ffff
0000
0000
000a
fff4
0005
ffec
0000
0002
0002
fffb
0002
fffb
0001
fff9
fff0
0013
0000
0000
0000
fffa
fffa
0008
0010
0000
ffe6
fff5
000a
0000
0003
0009
fffa
0000
fff4
fffd
0002
0004
0008
fffe
fff4
0009
000a
0003
ffee
000e
0007
ffff
0000
fff9
0004
fff5
0014
0009
fffa
ffcf
ffef
fff9
fffd
fff6
0006
0002
000a
0001
fff8
fffa
fffb
fff3
0005
0014
0006
fffd
fffd
fff8
0003
ffed
fffa
fffc
000b
0000
0007
fffe
0003
0008
fff0
fff8
fff2
0000
fff7
0004
0003
fffa
0001
fff7
0005
fff0
0000
0001
0001
fff3
0000
0004
fffe
fff3
fffc
0000
0006
0000
0003
ffef
000a
0017
0000
000f
fff7
0001
0002
fffd
fffa
fffa
fffc
0007
0001
fffd
fff9
0005
0007
0000
fff7
fff8
fff8
fffe
fffa
fffc
fff4
0007
fffc
ffeb
fff9
fffb
fffe
0001
000b
fffd
fff3
ffff
fff8
0002
fffc
fff3
0000
0000
fff7
fffd
000f
0000
0000
fffd
0001
0000
0006
0007
0007
0000
fffe
0007
fff6
0008
fff4
fffc
ffff
fff6
fffd
000c
0001
0004
fffc
0000
0000
0005
0000
fff9
000b
000a
000a
0002
0003
000a
0008
0006
000b
000b
0003
fffe
fffe
0002
000e
000a
fffb
0001
0004
000d
0000
000d
000d
0002
fffb
0003
0009
fff3
fff5
fff3
0009
0005
0008
0001
0003
ffff
0002
fffd
fff4
fffd
0001
0009
0006
fff2
fffd
fff9
0012
0000
fff6
000b
fff2
0001
fffd
0004
fffd
0007
fffb
fff7
0009
ffff
0000
0000
0003
fffa
000d
fffc
fffa
fffe
0009
0009
fffd
fffe
0000
fffe
fff7
fff6
0000
0009
000d
0005
ffff
0000
ffee
0003
0000
fffc
fffa
ffff
0005
0002
fffc
ffff
000d
fffc
0007
000e
000a
fffd
0004
0002
fff8
000b
0000
0000
fff8
fffe
0008
000b
fffa
0009
0004
ffff
fffd
0003
fff7
fffe
ffff
0000
fff8
0011
ffff
0000
0008
ffe6
000f
fffe
000a
0003
fffd
0007
000f
0005
fff7
fff2
0002
0008
0007
fff0
fffa
0008
0001
0005
fffc
fffd
0003
fffa
0000
0011
0001
0007
000a
fffe
0009
fffd
fffe
ffff
fffb
fffe
0006
0000
fffc
0006
0005
0004
0007
fffa
fffd
fffa
fff1
fff9
0001
0002
0000
0003
fffa
0008
0004
fffe
fffd
fffd
0014
0008
0008
ffed
0007
fff9
0007
fffb
fff9
0002
0015
fff3
0003
0005
000c
000a
ffe9
fffe
ffff
0006
0003
fff4
fff7
fffc
fff9
fff5
fffc
0009
fff0
0007
0007
000a
0006
0004
fffa
fffb
0000
0007
0012
fff5
fff6
fff5
0000
0003
0008
fff2
000f
fffe
0001
fff7
fff2
ffff
0000
fff7
0004
000c
fff2
0008
fff9
0000
0000
000d
fff8
000b
0006
fff6
ffff
fffe
ffee
0001
0007
0007
0001
fff2
0000
fffb
0005
fff9
fffd
0006
0007
0003
fffd
0003
0000
0000
0009
0004
0014
0005
ffe1
ffef
0008
000a
0000
0006
ffec
fffc
fff4
0006
fff7
0000
0009
0007
fffa
0000
fffb
fff9
0000
0008
0013
fff9
000a
0007
0001
0009
fff9
fff4
fff1
ffe9
0007
0008
fffc
000f
0007
ffeb
0011
fff3
0006
0006
fff9
fff4
0006
0001
fff3
ffff
0017
fff2
0007
fffd
000e
fff7
fffe
000b
0005
0010
ffe8
fff9
000b
0005
fff0
fff4
000a
0006
000d
fffa
0008
0009
000a
fffb
0000
fff7
0004
0009
fffe
fffe
0024
0000
fff3
fffe
0003
fff9
fffd
0000
ffe3
fff4
ffff
0014
fff6
ffee
fff8
0007
0004
0014
0020
fff3
000e
0006
fffb
fff8
fffc
0011
0002
fff5
000e
0012
0008
001e
000e
fff6
fff6
0007
fff7
fff3
ffea
fff4
fffa
0002
0017
0014
0004
ffee
0011
fff9
fff8
0000
fff5
0000
ffff
fffc
0002
fffe
0000
fffe
fffa
0000
000c
000a
000a
fffc
ffed
fff3
0009
0007
000b
0007
ffe9
fffc
ffee
0003
0004
fff9
fffd
fffd
fffd
fffc
fffa
fffb
fffc
0007
fffc
ffff
fffd
0009
fff9
0015
fffc
0018
0005
000b
0007
0000
fffe
fffd
0002
0007
0008
0005
000d
ffff
fff0
fff9
0000
0007
0007
fff7
0009
0004
fff3
fff0
0011
fff8
ffef
fff0
ffee
fffb
fff4
0005
fff8
ffff
fffe
fff0
fff9
000b
0007
0000
0002
0007
0003
fffd
ffff
0001
fffa
fffe
ffff
fffc
fff4
000d
fffa
ffef
ffff
fffd
ffe6
000a
0000
0004
fffa
fffb
0002
0010
fffb
fffc
000d
fffe
0009
fffe
000b
0003
fffd
0008
000a
fff9
0009
fff9
fffe
ffee
0008
0005
0010
000c
fff2
fff0
000f
0009
fffa
fff2
0000
000a
000e
ffff
0000
0005
fffe
fffc
0003
0000
0000
fff9
fffd
ffff
0008
fff7
fff4
fff4
fffe
000c
0007
fff4
fffd
fffd
0005
ffff
0010
fffa
000c
0000
0000
0006
ffff
0006
fffc
000a
fffd
ffff
fffa
0002
0003
fffd
000b
fff3
ffea
0003
fff8
0008
0000
0003
fff6
0007
fffb
fff8
0000
0000
0000
000b
0001
ffff
0007
0000
ffff
fffc
000c
fffa
0009
0003
0000
000b
fff7
fffe
0003
ffe3
0000
0008
0005
0002
000a
fffe
fffd
fff5
0000
fffe
fff9
fffa
000f
0005
fffb
000a
fffa
fffe
0001
0007
0000
0002
0000
0007
0001
ffff
fffb
fff4
fff9
001f
001b
fffe
0004
000a
fffa
ffff
fff7
fffa
0004
fffb
000b
000d
fffd
fffa
fff2
0003
fffb
0009
0005
0008
0007
000f
ffff
fffd
fffa
fff1
fff6
001a
000a
000f
0009
0000
fff5
0001
0001
fffe
ffec
fff8
0003
0005
fffb
000a
ffef
fff3
fffd
ffff
ffff
fffd
fff9
0002
ffef
fffb
fffd
fffd
fff0
000a
0019
fffb
0000
0008
000c
0005
ffff
fff9
fff2
000e
0002
fffb
000c
0008
fff9
0009
fff2
fffd
0008
0008
fffd
000d
fff8
fffa
0002
0002
0010
fff9
0003
fff8
fff6
0006
0004
0006
ffee
fff2
0000
0016
0000
fffa
0002
0009
0004
000a
fffa
fffe
0006
fff9
fffd
0000
0006
0001
000a
ffff
fffe
fff2
0004
fff5
fffd
0009
000c
0000
fffa
0006
0002
0004
0008
fff9
0006
fffe
000a
ffff
0002
fff8
0003
0001
0002
0003
0004
fff0
0006
0001
fff1
fff6
fff7
fffe
ffec
fff6
fffc
0004
0004
0004
0003
fffa
0004
fff7
fffb
fff5
0000
0006
fffc
ffe8
fffb
0004
fffe
0000
0005
fffe
000d
fff8
fffe
fff8
fff6
fff8
fffb
fffb
0006
000f
0005
000b
fff4
000a
fffe
fffc
fff7
fff3
fff8
fff6
ffe2
fff2
fffd
0008
0004
ffff
fff9
0003
0004
fffd
fff9
0004
fffd
0007
fffc
0007
fff9
0007
fffd
fff8
0007
0003
fffc
0000
0002
fff5
ffea
ffeb
ffec
0001
0000
fffc
fffe
0004
0004
0008
0005
fffb
fffa
0000
fffd
fff5
0006
0002
000b
fffe
fff8
fffe
0013
fffa
fff9
0001
0000
0004
fffa
ffe4
fffd
ffff
fffc
fff4
0007
0009
000c
0004
0006
fffd
ffff
0000
000e
0000
fff3
fffe
000a
0000
0002
fff6
fff6
fffc
0000
fffa
000a
ffec
fff6
fff0
0002
0002
fff5
ffff
fffd
fffc
0004
0007
0007
fffc
0000
fff0
0006
ffff
fff7
fff8
0005
0004
fffa
0002
0007
fff6
fffb
0005
0004
0009
ffff
000f
fff7
0001
0005
0002
fffc
0001
0000
0003
0014
fffc
fffc
000b
fffc
0001
fffd
fffc
000a
0002
fff7
fff8
0001
fffc
000a
0004
ffff
0008
0005
0006
0000
fffe
fffd
0005
fffb
fffa
fff4
0001
0005
ffff
0002
0000
ffff
0005
fffd
fff7
fffe
ffff
fff5
fff3
fff2
fff7
ffff
0007
fff2
0005
fffc
ffff
0000
0002
ffee
0001
0007
0005
fffc
0004
fff4
fff4
0009
0019
0002
0000
0000
0007
000a
0013
0000
fffb
fff9
ffeb
fffb
000c
000a
fff8
fffa
000a
0006
fff9
0007
0003
fffd
0004
0006
0001
0003
fffb
0005
0014
fffe
fff5
fff4
0009
fff4
0006
0000
fff6
0004
fff9
0000
ffec
fffe
fff4
000a
000f
0006
0007
0003
fffe
0000
fffa
0000
0004
0000
fffb
0003
0006
fffe
0009
fff5
0002
0009
0006
0006
fffe
fffa
0017
0006
fff9
fff4
ffea
000a
0006
ffff
0000
0000
fffd
0008
fffc
fffa
0004
ffff
fffd
0008
000e
0000
fff4
0000
fff7
0002
0002
ffff
fffa
fff8
fff8
fff3
001b
0003
fff0
fffe
ffff
0009
000b
0004
fffc
0002
0000
fff3
0006
fffb
000b
fff3
0006
fff8
0003
ffff
fffe
0002
000a
fffa
0009
0005
fffa
0004
fffd
fff9
fff2
fffc
ffff
0007
fffa
fffa
0000
0003
fffb
fffa
0006
0004
0006
0009
0006
fff8
fff5
0000
fff8
fffe
0012
fff8
0005
0002
0009
0007
0002
fff8
0000
fff5
fffd
0000
fff5
fffe
0000
0001
fffa
fffa
fffb
ffff
fff4
ffe7
0007
0015
0001
fff3
ffeb
0008
002e
fffd
0000
0002
0000
0020
fff9
fff3
0005
ffef
fffd
0000
fffa
0000
fff6
ffee
ffed
fff2
ffea
ffff
fff6
fffa
000b
ffeb
000c
fff1
ffec
0000
001b
0004
0000
ffed
0001
000f
fff5
0002
fff9
fff6
fff5
ffee
ffef
fffb
fff7
0001
fff3
fffc
0000
fffe
0001
fff0
fff8
fff8
fff6
fffa
fffc
0001
0008
ffee
fff6
000f
fff7
0000
fffc
fff4
0009
0000
ffee
fff8
fff3
ffed
fff6
fffd
0003
fff2
0007
0008
ffff
fff9
fff0
fffa
fff9
0003
0001
fffb
0005
fff7
0018
ffeb
ffff
ffef
fff9
fffd
fff7
fffe
0005
fffa
fffe
fff1
0001
0010
fffa
000c
0004
0008
fffb
fff8
ffff
fff1
fffb
fff6
0000
ffef
fff2
0001
0005
0008
0000
0002
fffe
0001
ffff
fffb
fffe
fffb
fffb
0001
fffd
0001
000c
0002
000e
0004
0011
fff7
000f
fff5
fffd
0000
0002
000b
fff1
0005
fffc
fffd
fffe
fffd
fff4
fff4
0007
fff2
fff6
fff4
000f
0004
fffd
000a
0007
001b
ffeb
fff6
000b
0002
0007
0002
0000
0001
fff9
0008
fff9
0005
0000
fff1
0006
0006
ffff
0007
0008
0007
0009
fffa
ffff
0004
fff5
ffef
fff9
0004
0000
0003
0005
fffe
fffd
0007
fff8
0004
0005
fff4
fffd
0000
000b
0000
fff5
000b
0007
fffd
0006
0003
fff8
ffeb
fffa
fff7
fff7
fff2
fff3
0004
0011
001d
0003
0014
0003
ffff
0005
fffd
fff6
fffd
fff3
0005
0002
0006
0004
fff8
fffd
ffe6
ffff
0009
0001
fff9
0002
0001
fff9
fff6
0001
fff8
fffb
0009
0005
fffa
0007
ffff
fff9
0000
0008
0002
000a
fff4
0006
0002
fff9
0003
0001
fff7
fff8
fffb
0009
fffe
0000
fffd
0001
0002
fffa
0009
0002
0000
000f
fffc
0002
0007
fff3
fffd
fffe
0003
0000
fffe
0001
000c
0007
fff9
0000
fff1
0003
fffd
ffff
0004
0000
0002
0008
0012
fffd
000d
0008
0003
000b
0007
ffe6
fff8
0006
0002
fffe
0005
fff8
ffff
fffe
0003
0006
ffff
0002
fff2
ffee
fffe
fffe
000d
0000
0006
0009
000c
fffc
fffe
0008
000d
fff9
0005
fff8
0008
fffc
000a
0008
0000
fffc
0005
fff5
0001
fffb
0001
fffc
fffc
0000
ffef
0001
0004
000a
ffff
0005
0002
fff6
0010
fffd
fffe
fffe
fff7
0005
fffb
fff9
0000
0004
0001
fffa
0003
0001
0002
fffc
000b
0003
0000
0002
fffc
ffff
000c
000e
0000
0004
fffe
fffa
0007
0005
fff3
0000
0005
fff6
0004
0009
0008
ffff
0002
fffd
0000
0001
0003
fffc
fff9
fff7
fffe
fffc
fffe
0001
0018
0015
0006
fffc
0008
0009
0003
fffb
fff8
0000
0001
000c
fffe
fffe
0005
fffd
ffff
0004
0003
fff0
fff9
fffd
ffff
0007
fff0
000b
000a
0004
0003
000e
0009
0004
0005
0003
0002
0004
fffa
ffee
fffb
0005
fffb
fff5
0000
0003
fffd
0007
0001
fff6
fffd
fffb
fffe
fffc
fffa
fffe
0005
0006
0000
0000
0000
0002
ffff
fffc
000a
000a
fff7
fff3
fff0
fff7
fff9
0003
fff5
0006
0000
0001
000a
fffe
ffff
0000
fff8
fffd
fffc
fff8
0001
0005
0011
fff6
fffe
0008
0003
000c
0008
0000
ffff
0004
fff6
0003
0001
fffe
fffb
0001
fffc
0003
0002
0004
ffea
0007
fffb
0000
0000
0001
0002
fffd
000a
000b
fffd
fff2
000d
0000
0006
fffe
0017
fffe
fffe
fff6
0010
fff9
fffb
0001
fffa
0009
0006
fffc
fff2
fffb
ffef
0000
000b
000f
0002
fffd
fffe
0003
0001
0000
0005
0007
fffd
0006
ffff
0005
ffff
0001
fff6
fff3
0003
fff8
0001
fffc
000d
0002
fffc
0000
0011
fffc
fffc
0012
0005
fff2
fff9
000f
0005
000a
ffff
0003
0000
0013
0000
000b
0000
0005
000c
fffc
fff7
0001
fffa
000e
ffff
fff4
0003
000b
0004
0016
fffa
fff8
000b
0008
ffef
0004
000e
fffb
fff1
fffd
fffb
000c
0012
fff9
ffff
fff7
0002
ffef
0003
fffc
0000
000a
fffd
0002
fff1
0003
0013
0008
fff7
0001
0000
0003
fff9
0002
0006
0006
ffff
0004
ffff
0007
0014
fffc
0006
0000
fff6
0000
fff4
0004
0004
0004
000b
0003
fff5
0000
fff9
fff6
fffe
fff9
fffc
000d
fff1
0001
0011
fff9
fff7
fffd
0006
0004
000d
0004
fffe
0000
0004
fffd
ffef
fffe
0005
0011
fffc
fff3
0000
fff5
0001
0015
000d
fffb
fff4
0003
0000
fff0
0000
0005
fff2
0005
0008
000c
0005
fffb
0010
0006
fff8
fff1
fffe
fffb
0005
0010
0002
fffc
0003
fff1
000a
0011
000d
fffb
0003
fff4
fffb
fffa
fffe
fffe
fff4
0004
000e
000a
fffb
0001
0004
000b
fff8
fff3
0002
0000
001b
0001
0003
fff9
0000
fffc
000a
0003
fffd
fffd
0002
0008
0003
fff9
0004
fff7
fffe
000d
0016
0000
fff6
0014
0005
fffb
fffb
fff2
ffef
fffe
0003
0004
fffd
fff5
fff1
0002
0001
fff4
fffc
fffd
fff8
000f
0018
0005
fff3
fff8
fff8
fffa
fff9
fff0
fffd
fffe
fffc
0009
fffe
fffe
0005
0009
0000
fffe
0004
0001
fff7
0001
fffc
fff9
fff9
fff4
0005
000b
0001
0000
fff6
ffe0
ffe7
ffe8
ffe8
ffe7
fff9
0001
0001
ffff
000b
0000
fff8
0001
0001
fffc
0001
0003
0001
fffe
0000
fff9
fffb
0005
fff9
fff7
fff3
ffe5
ffe0
ffe9
ffdf
ffeb
fff1
fffb
0015
000b
0003
0001
fff9
fff1
fffd
ffff
0002
fffe
0000
fffe
fff2
fffa
0000
fffb
0000
000f
0009
0000
0009
fffd
ffe4
ffe4
fffb
0000
0001
0003
fff9
fff9
fffd
0003
0006
0001
fff9
fffa
000b
0008
ffff
fffe
0006
0003
fffb
000b
fffd
0002
0004
000b
0006
fff9
ffee
ffe9
fff9
0002
0001
fffb
fffa
fffd
0003
fffa
0007
0000
fffc
0000
0003
000b
fff7
0007
fffe
0004
0007
0002
fffd
fffe
000d
0005
0008
0007
fffd
ffec
fffb
0002
0000
fffe
0006
0000
ffff
fffc
0000
fffe
0006
fffb
000a
0003
fff7
fff7
fff8
0009
0005
fffd
0007
fffe
0005
fffc
0007
0004
fff6
0000
0006
0008
0005
0008
fff9
0000
0002
fffa
0005
0008
ffff
fffa
0002
ffff
0004
fff9
0002
fffe
0000
0002
fff8
000b
0006
0002
0003
ffff
fff8
fff8
0000
000d
fff6
0009
fff7
fffb
0006
ffff
0008
0000
0000
fffa
fff9
0008
fffd
fffb
0003
0006
fffd
fffc
0000
0003
fff4
0003
0004
0004
fff5
fffa
000e
000b
fffe
fffe
0003
fffe
000a
fffd
0003
0007
0007
fffe
fff6
0000
fffe
fffe
0000
fffe
0003
0005
fff9
fff8
0006
fffb
0000
fffe
fffe
0007
0004
0002
0008
0000
0004
0000
000a
fffe
fffd
fffd
0002
0000
0002
fffe
0000
0006
0006
fff7
0002
0004
000c
fffe
0005
fff9
0001
0003
ffff
0003
000a
ffff
0003
0004
0004
fff9
0003
0006
0006
0004
0000
0005
fffd
0000
fff8
fffd
0001
0000
fff9
0001
000b
0000
fffb
fff9
0004
0009
000c
0001
0006
0006
fff7
0002
0005
0001
0003
0000
0002
fffe
0002
fffe
0000
fff7
0002
fffd
0002
0002
fffe
fffe
fffe
0005
0006
fffc
0003
0000
0006
000c
0000
ffff
fff5
0005
ffff
0002
0005
0005
fffd
fffe
fffe
0001
fffa
0005
fffb
0007
0000
0000
000b
fffe
fffe
fffa
0000
0002
0000
0008
000f
000a
000c
0008
0004
0004
0004
0004
0003
fffa
fffb
0009
fff8
fffb
0006
0004
fff8
0000
fff8
0006
fffc
0008
0001
fffb
fff7
fff5
fffe
0004
0005
0000
0000
fff3
0000
0000
ffff
0004
fffe
ffff
0001
000b
0000
ffff
0002
fffe
fffe
0001
0001
fff9
0000
fff8
0004
0009
ffff
fffd
0006
000d
000c
fffb
0000
fffa
0001
0003
fffc
0006
fff6
000a
0000
ffff
0002
0004
0000
fffc
fffa
0000
0006
0000
fffd
0003
0001
fff5
0005
0003
000f
0008
0003
fffd
000d
fff8
0003
0000
0004
ffff
0000
fffb
0006
fffb
0000
0004
fffb
fffa
0002
0000
fff8
0002
0005
0007
fffa
fffb
0005
0002
0009
0002
0003
000b
0000
fff3
fff8
0001
0008
fff7
000e
fff8
fff9
0002
000a
000a
fffb
0006
0000
0001
fff7
fffa
0004
fff9
0000
0001
fff7
fffc
fffd
0006
fff9
0006
0001
fffa
0000
0008
fffe
fffb
0000
0001
fffe
fffd
0000
0001
000b
ffff
0002
0007
0002
fffd
0005
0000
fffc
0001
fffc
fffe
fffb
fffe
0002
0005
0008
0009
0003
0000
fff9
0004
0004
fffe
fffd
fff9
fffb
0002
fffc
fffe
fffe
0007
0000
0000
fff9
0007
fff9
0003
fffe
fff2
0002
0006
fff9
0005
0000
fffb
0000
fff5
0000
0004
fff8
000a
0006
0003
0001
0000
fffe
fffe
ffff
0001
0005
fffc
0005
0003
0002
fffb
0000
fffb
0007
0008
fffa
0002
0000
0000
0002
fff3
0003
fffd
0001
fffd
ffff
0002
0006
fffe
0007
0003
0000
0004
0001
fffe
fffa
fff6
fffe
ffff
0006
000a
0002
0001
0005
ffff
0004
0006
0003
ffff
0005
0002
0003
0003
0001
0004
0001
fffa
0000
0007
fffe
ffff
fffb
0005
fffe
fffa
0002
0000
fffe
0000
0000
000a
fffb
fff5
0003
fffe
fffa
fffc
0003
0001
0001
fffe
0001
fffa
0002
ffff
000b
fff9
fffb
0000
0005
000c
fffe
fffc
0003
0009
fff3
fffe
ffff
fff9
0002
fff9
0005
0002
fffe
fffc
0001
0002
0004
0004
0000
fffa
fffc
ffff
0003
fffa
fff9
0003
0000
0001
000a
0001
0000
fff6
0002
0000
0002
fffe
fffa
fff2
fffb
0001
fffd
0005
fffa
0009
fffb
ffff
fffe
fffc
fffc
fffc
000b
fffb
fffd
fffd
0009
fffc
0006
0004
0000
fffb
0000
0000
fffd
0000
fffe
0000
0001
0007
fff0
0002
fffd
fffc
0006
0007
0002
fffa
0002
fff6
0005
0000
ffff
fffc
0003
0007
0004
0000
0000
0005
fffd
fffa
0000
0002
fff8
fff0
0004
0007
0003
fffc
0008
0007
0001
ffec
0002
0005
0000
fff9
0000
0007
0003
fffa
fff7
0000
0001
fff5
0006
0004
fff8
fff9
fff7
fffe
fff8
ffdc
fff1
fffb
ffff
0000
0000
0000
fffb
0001
0004
0002
0003
fffa
fffe
fffd
fff7
0002
0008
ffff
ffec
0005
0000
0006
fffe
0006
fff8
fff2
ffdb
fff9
0002
fffc
fffb
0006
0001
000b
0012
0012
0002
fffb
0000
0003
ffe5
ffee
fffa
0000
0006
0013
fffd
0008
0008
fffe
fffe
fffc
0004
fffe
fffc
0004
fff8
fff9
fffe
0000
0004
0001
0017
ffff
0013
0007
ffec
fffd
fff6
ffed
ffe9
0001
0000
ffec
fffd
fffa
0004
000e
ffff
0007
0006
fff6
fff5
0005
fff9
fffc
fffb
0000
fff1
0003
0004
001b
ffff
0003
fff1
ffff
fffa
fffe
0002
0000
fff6
fff8
0001
0005
fff8
fff7
fff6
fffe
fffd
fffd
0001
fff8
0000
0005
000b
fffa
ffee
0001
0008
0008
fff6
fffb
fffe
ffe8
0002
0006
fff9
0008
0003
fff4
fff7
0000
0005
fff2
0003
0001
000a
000a
0000
fffd
0000
0007
0007
0002
0003
fff7
0005
000c
fffd
0003
0017
0013
fffc
000d
0006
fff8
fff8
0002
0001
fff4
001b
fffd
fff8
0003
fffb
fffe
000a
ffff
0005
0008
000c
fffd
fffb
ffe9
fffe
fffd
000b
0010
fff0
fff7
0003
000f
0006
fff7
000c
0000
0005
0008
000a
ffef
0003
0008
0003
ffff
0004
0006
0006
000a
0000
0007
000f
fff3
000d
ffff
0000
0013
fffb
000e
ffe2
0009
fff2
fffe
0000
0000
0005
0000
0011
fffe
0006
0007
0010
0003
fffa
0002
000a
0008
0009
000c
001c
fff4
0014
0004
fff5
0007
0005
000b
0007
fff8
fffb
ffff
fff9
000c
0009
0000
ffff
fffb
ffff
ffff
fffb
0007
0008
fffb
fffd
fffb
0006
0003
0007
0005
000f
000a
fff9
fffa
000b
000a
0003
fffc
000b
0005
0003
0003
0000
000b
0001
000c
fffa
0000
fffc
0005
0004
fffc
fffa
0009
fff6
fffe
0004
0007
0000
0004
0007
0004
0003
fffb
fffd
0009
fffa
000a
fffb
fffb
fffa
0009
000b
000d
000b
fffd
0001
0000
0002
fffb
fff2
0000
fffc
0005
0004
fff0
fffc
0004
fffe
000d
0009
0003
0001
fff5
0004
fffd
0008
0003
0000
0002
0000
0002
0009
fffe
0005
fff2
0002
ffff
0000
fff8
fffc
fffe
ffff
000f
0003
fff8
ffed
fffd
fffd
fffa
0002
0000
0008
0002
0010
0004
ffe8
0004
0000
fffa
000a
0003
0000
0003
0000
0004
0001
0003
fff8
fff8
fffb
fff7
fff9
0001
0002
0006
0016
0004
fff6
0004
0011
000c
fffd
fffe
0007
fffd
0008
0005
fff8
0008
000c
0008
fffc
0001
0008
0005
ffef
0003
ffff
0000
fffd
fffb
ffff
fffb
fff5
0003
0005
0006
0010
0004
0002
000c
fffb
0007
0003
fffb
fffc
fffc
fff9
fff1
0005
0001
0009
0001
ffea
fffe
ffff
0005
0000
000c
0003
0001
0000
fffe
000e
0004
0001
0009
fff7
fffe
0014
0003
fffe
0016
0008
000f
fff5
000d
0006
0000
fffe
0002
0005
fff6
0001
fff7
fffe
0005
fff9
000d
fff8
ffff
fff6
fffa
000e
0000
0005
fff4
0005
fffc
fffa
0005
0001
0002
0005
0002
fffc
fffb
fff8
fff7
0006
000d
0003
0007
0009
000b
ffee
0006
fffc
0005
0006
fff4
0000
000c
fff8
0008
fff2
0007
fff5
fffe
fff7
000f
fffe
000a
fffe
0004
000c
fffd
fff6
0000
000b
000b
fffd
0002
fff1
0009
0004
fffc
fffb
fffb
0002
000f
0005
0007
0001
000d
0000
fffc
0000
000a
0009
0000
0005
0008
0001
0007
fffd
0003
fff7
0006
0014
fff7
fffe
0005
0007
fff9
0007
fff8
000d
fff5
0012
0007
fffc
0002
0008
0000
fff7
0006
000d
0001
fffb
fffa
0002
fffa
fff7
0003
fff5
fffd
fffd
0007
fffe
0004
0000
fffb
0000
0007
fffb
fff8
fffd
0002
fff0
fffa
fffe
fffb
fff5
000f
0006
0008
0008
0000
000a
000a
fffc
0002
0000
fff8
fff9
fffb
0006
000f
000a
ffec
fff7
0002
fffd
0006
fffe
000f
fffb
fff0
0001
0006
0004
0000
0007
000f
fff4
ffff
fff7
000b
fff9
0008
fff9
fffc
fff4
0000
000c
ffff
0004
fff5
fff9
ffff
ffec
000b
0002
0003
fffe
fffa
ffef
000e
0000
fffb
fff6
fffd
fff1
0009
fff6
0000
fffa
fff7
0007
000f
fff2
0008
0009
fff6
0000
0003
0009
0006
0008
fffe
ffed
ffff
ffff
fff9
0000
0007
fff9
fff7
ffea
fffb
fffe
0004
fffe
fffe
ffff
fffd
000e
0003
0000
0001
0000
0004
0004
0005
000a
000d
fff8
ffff
0002
fff8
0000
fffd
fff0
fffc
000a
0005
fff4
fffd
fff6
fff8
0001
fff9
0000
0007
000a
fff9
000a
0008
fffa
fff7
fffa
ffff
0001
0003
ffee
fffa
0006
fff2
000c
001d
0008
fffd
0004
fffd
fffe
fff3
fffc
fffb
fff0
fff9
0000
0001
0015
fffb
0012
0005
fff9
fff8
000d
0002
000c
0000
0004
fffc
fffb
fff6
fffc
0009
000f
fff8
fffa
fff2
0002
0003
ffff
fffc
fff5
fffd
0006
0006
000f
ffff
000b
ffdd
ffee
0007
0009
0010
fff8
fffe
0006
0006
0003
0002
fff4
fffc
fff2
001a
000f
0001
fff4
fffc
fff7
0004
fffb
fffb
0000
fff3
fff9
000a
000f
0000
0000
0006
0004
fffa
0003
0013
fffc
fffc
0002
fff9
fff5
0000
0004
000a
fffd
0000
0002
0000
0001
ffff
fff9
0007
fff6
ffff
000b
fffa
fffe
0011
000c
0018
002c
ffe8
ffd8
fffb
ffd7
0011
000e
001d
0025
0004
fffb
fffa
fffe
0002
fff9
0000
fff8
fffb
fff9
0002
fff8
fffb
fffc
ffeb
fffc
fffa
0005
fffa
ffeb
0017
fff9
fff2
ffee
0002
ffe0
fff9
001d
fffd
0000
fffa
fff7
0003
fff8
fffa
0001
0001
fffa
0003
fffb
fff9
fff1
000d
000f
fffc
fffc
0014
0014
fffb
fff8
fff1
ffdf
fffb
000b
0000
0009
0019
001b
0000
fffc
0006
0004
0000
0003
0000
fffd
0004
0003
ffff
ffee
001f
fffe
0008
0007
0007
fffa
001a
ffec
fff1
fff2
fff8
fffd
fff8
0028
ffef
0008
000d
0006
0000
fffc
fffe
0004
fff9
0000
ffff
0004
fff8
000a
000b
0017
000a
0002
ffdf
fffe
fff8
fff7
ffdd
0000
fff2
0000
fffa
fff4
0001
0012
0004
000b
fffb
0004
fffb
fff7
0002
ffff
0000
fffe
0000
000e
0008
0007
fff6
ffef
fffe
ffeb
0001
fff8
ffe9
0001
fff3
fff3
001a
ffef
fffb
0000
0014
0001
fffe
fffa
0006
ffff
fffd
000b
fffd
fffc
0002
fffd
0001
0005
fffa
0006
fffd
ffef
0002
ffe0
fff1
0008
fffc
000f
fffb
fffd
0000
0005
0006
fffc
fff9
0001
0004
fff9
0000
fffa
fff1
0007
fffc
fff6
fffe
0001
fff8
fffb
fffe
ffee
ffee
0002
fff4
0006
000c
fffe
0002
0002
0004
0000
0007
0012
ffff
ffff
0000
000a
0006
0005
0005
0001
0009
fffe
fff8
000c
0007
000a
fffd
0005
0009
0003
ffef
0000
0000
0019
fff2
0007
000c
ffe7
0004
fffe
0003
fffa
fff5
fffc
fffd
fffe
0005
fffc
000e
0006
fffc
ffef
000d
fff2
ffec
000e
0019
ffee
000b
fff7
0001
0016
fff2
0004
0001
ffff
fffb
fff9
0006
0003
0002
0002
fffd
000b
fffb
fffb
fffd
000b
ffef
fffe
fff8
ffe6
001a
0010
0006
000f
0000
fffb
fffd
fffd
fff6
0000
0000
fffa
0004
fffa
ffff
0007
0004
fffe
0008
0008
000a
0005
0011
0008
fff2
0001
ffe8
0003
0002
0002
000d
0006
0001
0001
0000
000b
0000
ffef
fffa
0008
0008
fff0
0004
0000
ffff
fffd
0004
fffc
0002
000d
0000
0000
0000
ffff
0003
ffee
0004
fff9
0013
fff3
0014
ffff
0004
ffff
0004
fffe
fffc
0001
fff6
fff3
0000
fff7
000b
0000
fffb
0006
0005
0006
fffd
fff6
0008
0019
fff2
fffc
0000
0002
0002
fffb
fffc
0005
000b
0002
0004
0001
ffee
0010
fffe
0000
fff7
fffc
fffd
0009
0002
ffff
ffff
0001
fff9
fffd
000b
fff6
0000
0009
fff5
0008
0002
ffed
fff7
0000
0002
fff6
fffb
000b
fff7
fff1
000d
ffff
0005
ffff
0009
000b
0004
0005
0009
0000
fffe
0000
fff1
fff0
0001
ffff
0000
0002
0002
0000
fff1
0016
0010
000d
fffe
ffff
fffc
fff9
fff9
ffff
0003
0015
0004
0001
0005
0003
fff6
0006
0000
0006
fffe
ffe3
0001
ffff
0009
0003
0003
fff6
fff5
0001
0008
0003
0000
fff2
fff8
0006
0000
0002
fff5
000d
0004
fff9
0001
fff8
0000
0000
0009
fffc
fff6
0004
fffa
fffb
000f
fffb
0000
0004
0006
fff4
000a
0004
fffe
ffed
fffd
fffa
fffe
0008
fff4
0004
0008
0000
0007
000f
0006
0000
fff8
0000
fff6
0006
ffee
0011
fffb
0005
0003
fff3
fff9
0002
0001
0008
0006
0002
000b
0015
ffe6
0006
fff9
0004
fffc
fff7
fff8
fffc
000c
000a
000e
fff8
0008
fff3
fff8
fffe
fff9
0012
fff8
ffeb
fff2
0005
000a
0006
fffc
fff3
fffe
0000
0003
0011
000a
fff5
0004
0005
fffe
fffa
fff9
0007
fffb
fff4
0000
fff8
0000
fff2
0002
0008
fff9
fff0
0000
0001
000f
0014
0001
0000
fff3
ffed
fffb
fff6
000b
000b
0002
0017
0000
0008
000b
ffed
0012
fff2
fffd
fff7
0002
0002
fff8
000e
0011
fff6
fff9
fff6
fff7
0000
0015
fff6
fffc
fffc
0004
0000
fffb
0002
000a
0015
0002
0002
0001
ffeb
0006
0009
fff5
0001
0001
000b
ffec
0017
000b
fffd
fff9
000e
fff8
000c
0008
0010
0005
0000
0002
fffe
ffef
fff9
fff2
ffff
fffe
0000
fffb
fffa
fffc
0006
0006
ffed
000e
000a
ffee
fffb
000f
fffc
fff9
0000
fff9
fffc
0003
000e
0009
fffa
0009
0018
ffe8
fff5
fff8
000e
fffc
fff7
000a
fffd
ffea
0018
0002
fff6
000d
000c
fffb
fffc
0007
0004
fff3
fffa
0012
0000
fff2
0009
0001
fff6
0013
0006
ffed
0002
fff7
0006
0005
fff5
000f
fff7
fff6
000d
fff8
001b
0017
0000
ffea
0002
0000
0009
fffa
fffe
0006
ffe3
0002
0017
0000
fffd
0004
fffd
0015
0001
fffa
0001
fff9
ffe6
fffd
fff9
fff5
0008
0010
0000
fff6
0001
0000
0000
0004
0004
0008
0000
fff8
0008
0009
fff2
ffe4
0002
fff7
0009
000b
ffed
fff1
0006
0000
fff5
fffb
000d
0015
0001
000a
0008
fffb
fffa
000f
0009
0001
0010
fffa
fffa
0006
0008
fffb
fffb
0012
fff8
0000
fff4
fff9
0000
fffb
fffc
0002
0002
000a
0005
0006
0001
000f
000a
fffe
0014
0004
0004
fffa
0001
0003
0002
0000
000e
0002
0004
0005
0006
0002
0007
0000
0008
000e
0011
0004
0009
0007
ffff
0007
0003
fffc
fff6
fff6
0014
0017
0003
0000
ffef
0002
0007
fff2
0000
0003
fff6
fff6
fff3
0001
fffe
0000
0003
fff8
000c
0009
0004
0004
0003
fff3
fff9
0011
ffeb
0001
0003
fffb
fff5
0002
0000
fff7
fff6
ffff
0007
0015
0013
ffff
fffd
fff5
ffee
0000
0000
fffb
0004
0008
fff9
0007
fff6
fffb
0007
0007
000c
fff8
fff0
0015
0002
fff3
0002
0009
fff7
ffff
fffe
fffc
ffff
000d
0004
0003
0003
fff9
0001
0000
fffb
fff9
fffd
0002
0005
fff4
ffff
ffff
fffd
0005
fff9
0006
0008
fffc
ffff
001d
ffff
0009
0004
0001
fffa
fff7
0000
fff9
0000
fff6
0008
0000
fffd
fffb
0008
0000
fffe
000c
fff0
fff0
fff2
0003
0000
fffb
000d
0001
fff4
0010
fff5
0006
ffff
0003
fffa
0010
fffd
fffe
fff3
0006
0005
0005
fff7
fff8
0000
0003
fffc
0002
fff7
fffe
0004
fff2
ffff
0008
0000
0005
0005
0007
fff1
ffff
0006
ffff
fff4
000c
fff8
fff0
0002
0013
fffb
0009
0004
fff8
0004
0000
0000
000e
ffef
ffe0
fff8
0002
fff4
fffc
0009
fffe
0007
fff9
0004
fffe
fffe
fff7
0003
0003
0000
0001
fffc
0003
000a
0003
ffff
0003
fff9
fffe
0006
000c
fff6
fff7
fff2
fff2
0007
0004
0006
000d
0006
000c
ffef
0002
0008
0002
fffe
fff7
ffed
fffa
0002
0008
fff6
000a
000b
0000
0009
0009
0000
fffe
000e
0003
fffe
fffa
ffec
fffa
0005
fff8
000b
0000
0001
0003
0005
fffa
0001
fff6
fff2
000b
fff3
fffc
fffa
0004
0003
0004
0001
0003
0000
fff2
0007
ffff
fff3
fff3
fff8
ffef
0000
0002
ffff
fffc
0005
fffd
fff7
0000
0005
fffe
000a
0009
fffc
0000
0006
0008
0000
0002
fffb
fffe
0004
fff9
fff4
fff6
ffe3
000a
fffd
0003
0007
fffe
fffe
000e
0007
0002
fff5
ffff
0006
0003
fff0
000b
0003
fff6
fffc
fffc
0000
0004
0002
0000
fffd
0005
0005
000f
fff4
fffe
fff7
0009
0004
fff9
ffff
fffa
fffe
ffff
fffb
0006
0000
0003
000d
fffe
0003
0004
000b
0005
fff8
0000
fffd
fff5
fff7
fffc
fffd
0019
0005
fffe
0004
000d
fff8
fffa
fffc
0002
fffb
fffb
fff4
0004
fff8
000b
000d
000b
0009
000a
0007
0003
000a
000d
000c
0007
0000
fffc
0002
fff6
0003
fffd
0000
000a
fffc
ffff
0007
fffd
fffe
0007
0004
0002
fffb
0000
0007
0004
0008
0000
fffa
000c
0000
fff9
0000
fff6
0000
0000
fffc
0004
fffa
fff2
0000
0003
fff7
ffff
fff9
fff3
0000
0008
0002
0005
fffd
fffb
0008
0009
0002
0000
0000
ffff
fff6
0008
0004
fffa
0000
000d
000b
0002
0009
0004
fff7
0003
fff8
0001
0003
0000
000a
0000
fff5
fffe
0006
0006
0002
0017
fff0
ffff
0002
fffa
0006
fffd
fffc
0007
0006
0005
fff6
0006
000c
fffb
fffc
0000
000b
0001
0004
fff6
000b
0002
fff3
0006
0005
0011
fff7
0000
0000
0007
fffc
fff6
0000
fff9
0001
fff7
0001
000f
000a
000d
ffff
fffb
0003
fffb
0004
fff5
0001
fff9
fffb
0003
fffc
ffff
fffe
fffe
0002
0008
0000
fff7
ffff
fff3
fffc
ffea
ffff
0007
fffd
0000
0008
0015
ffeb
ffff
0004
0002
0000
fffc
0000
0005
fffe
000c
0000
0006
0007
fffc
0002
0005
fffc
ffff
fffb
fff9
fff7
fffd
0004
fff4
0004
fffe
000b
000d
0003
0000
0000
fffc
fffb
fff8
fffe
fff0
0010
000d
0007
0000
fffe
fff9
000e
0004
000e
ffff
0000
ffff
fff6
fff9
fffd
0005
0003
0011
0002
0000
fff9
0009
fff6
0005
0000
fffe
0001
0000
0004
0005
0008
fff3
0006
000b
0000
0002
0001
fffa
fffe
0001
fff7
ffff
0007
fffa
0004
000d
fffd
fffa
000f
0001
fffb
000c
fff6
0005
fffe
0007
0002
fff0
fffc
fffc
0004
0003
0001
000b
fffd
fffc
fffe
fff8
0000
fffd
0007
0002
fff8
0003
000c
fff0
0002
fffb
0004
0006
0006
0004
0007
fff8
0001
0005
fffb
fff8
fff9
fffe
ffee
0009
0005
0008
0004
0001
0000
fffe
0001
0004
0003
fffa
fffe
0006
fff2
fff1
fff9
0006
0000
0005
000b
fffd
0004
fff1
0011
ffff
fffb
000d
fff2
fff5
0007
0007
000a
0004
0000
0006
000f
0006
0004
0010
0007
000a
ffed
fff9
fffe
fffd
fffd
0009
000c
0001
0001
fff8
fff7
0002
fffe
fff5
0012
000f
fff4
fffe
0003
fff7
fffe
000d
fff7
0005
fffd
0006
0003
ffef
fff3
fff4
ffff
0004
0008
fffb
0009
0005
0008
0003
fff6
000c
fff2
fffb
0000
0000
000a
0000
fffc
0004
ffff
0001
ffff
0000
fffe
fff6
fffc
0008
fff4
fffc
0004
0011
0011
0005
fff8
ffee
fff9
fffc
000b
fffe
0000
0003
0000
0002
000f
fff7
0006
0001
ffff
000b
0000
0002
fffc
0009
000e
0002
0007
0003
0004
fffa
fff9
0003
0008
0001
0004
0002
0000
fff3
0001
0000
0000
000a
000b
0002
0001
0004
0000
0002
0004
000b
0002
0001
fffa
fffd
0001
0007
0000
fff9
fff7
0007
fffe
0007
0004
fff8
ffec
fff1
000a
0005
fffb
0006
fff4
fff7
fff6
000a
0007
000d
0005
ffff
fff1
0000
fff6
ffef
ffe1
0002
fffe
000c
0000
0005
fffb
fff9
000c
000c
0005
0000
ffec
000a
0005
fff7
fffb
0006
fffd
ffff
0005
0010
000d
fffb
0000
ffff
fffb
fff5
0000
ffee
fff0
fff9
0001
ffec
0000
0001
fff7
000c
0011
fffd
fffb
fff9
000a
fffd
fff7
0004
0001
fffe
ffff
0002
0000
000e
ffec
0008
0006
000a
fffe
fff6
fff6
0002
fffd
fff9
0004
ffed
fff8
0006
0001
0005
fff8
fff7
000b
fff2
000b
0000
fff5
0004
0005
000b
0002
0004
fff7
0002
fffd
0006
000b
0006
0004
0003
fffe
fffc
0000
fff0
fffc
0000
0008
0008
fffe
0005
000b
fffa
0012
fffe
fff6
0000
0000
0008
0009
fff8
fff0
0006
0007
0008
0026
000a
fff8
0001
fffb
0000
fffe
fffe
fffe
fff5
0007
0000
0000
000f
fff6
fffe
0004
0000
ffec
fffc
fffb
0001
fffa
ffed
fff7
0001
0000
fffb
ffff
000a
fff1
0003
0002
0000
fff5
fff6
0007
0008
0005
fffd
0004
0002
0004
fff2
0001
fff4
fff6
0008
fffb
0002
0008
fff4
fff6
ffff
fffa
ffff
000c
ffef
fffd
fffb
0001
0009
000b
0003
0000
000c
fffd
fff8
fffb
fffd
0005
fff7
000d
0000
fffb
0005
0005
fff8
fffd
ffff
fff5
fffe
0005
0000
fffc
fff3
000c
fff3
0007
0011
0001
0000
0000
0000
0006
fffb
0003
fffa
000d
ffee
0002
fffa
fffd
0000
0008
0000
fffb
0006
fff1
fffa
0007
fff8
000e
fffe
fffa
fff4
0009
ffff
0007
0006
fff3
ffea
fff5
0006
0004
000b
0001
0002
0009
fffc
fff1
fffc
0005
fffc
fff5
fff5
0000
000b
fffa
0000
0011
0008
0005
000a
fffe
fff9
fff3
0001
fff0
000e
0002
0000
000c
0007
0004
0006
0001
0003
fffd
0000
fffa
fff7
fff8
fff9
0009
ffff
fffd
0000
000c
0005
0001
0006
fff7
0000
0009
fffa
0000
0006
fff0
ffef
fff8
0002
0004
0000
fff9
0006
fff6
0005
fffa
0002
0001
fffe
0009
fffa
fffb
fff9
0003
fff3
0003
0004
ffff
0002
fff7
0006
fff8
fff7
0009
0004
fffc
fffa
fff5
fff9
fffb
ffec
0000
fffb
fffe
0004
0000
fff9
fff9
ffff
fff8
fffe
fff5
0019
0000
fffe
0003
0000
0005
0000
0001
fff6
0000
fffc
0000
0000
fffb
fff9
000a
0000
ffea
fff4
fff0
ffff
fffc
ffff
0008
0005
fffc
0008
0001
fffa
0006
0001
fffd
0002
0003
fffb
fffa
0000
fff9
fffc
0007
ffee
0002
fff0
0008
0001
fff5
ffff
ffff
ffff
ffff
0000
fffc
ffff
ffff
0006
0002
ffef
0000
0005
000c
0006
0006
0000
fff5
fff0
fff7
0009
0004
0001
0000
0006
000f
fff9
0002
0009
fff8
fffd
0008
fffe
0003
fff2
0005
fffd
fffc
0005
fff6
000c
0004
0000
0002
fff7
0002
fff6
0000
0001
000f
0000
fff1
000b
0007
0003
0002
fff0
fffa
0009
0005
fff2
0004
0010
000c
fff5
ffff
ffef
0003
fffd
fffd
fffc
ffff
fffe
fffc
fffd
0007
0001
fff9
ffff
fff6
0016
fffb
000b
0002
fffc
0005
0000
0007
fffd
000d
ffff
0001
fff1
fffa
0008
0008
0001
0000
ffff
0001
ffef
fff9
fffb
fff6
fffa
0000
0000
fffc
0004
0003
000a
0008
fffd
0006
0009
fff8
0004
fffe
000e
0001
fff1
fff6
fffb
0005
0009
0013
fffd
fff8
fff9
0008
0000
0003
0000
fffa
fff8
0004
fff0
fffc
fff9
000b
fffb
0000
fffa
ffff
0003
000a
0006
fff1
0009
fffb
000a
fff3
0003
fffe
fff4
0007
fff7
0000
0003
0006
000c
fffb
fffe
0011
fff4
0003
fffd
0000
0004
fff6
fffe
fff7
000e
fff5
000b
fffc
0000
fffc
fff8
0006
fff8
0007
fff9
0006
fffd
000a
0004
fffb
0000
000e
ffee
fff7
0001
fff4
0009
0000
0002
0002
0004
000a
fffa
fff5
fff1
ffff
0009
fff0
000b
0003
fff0
0001
0002
fff9
fff1
fff7
0000
0003
0008
000e
fffd
fffb
fff6
0001
fffb
0000
0009
fffa
fff8
0004
0004
fffb
ffee
0003
0001
0000
0007
0005
0004
fff9
fff2
000b
fff1
0002
0001
0000
fff8
0002
0001
fff9
fffa
0011
0003
0001
0001
000b
0001
fff0
fff7
fffd
0003
0006
fff4
0014
000b
000b
0006
fffc
fff2
fffc
fff8
fff6
fffc
000a
fff2
fff8
0008
000d
0006
fffd
fffc
0000
0005
0001
0001
0005
fffe
ffef
0005
0008
000b
0000
fff2
0004
fff9
ffff
fff8
0001
fff5
fffe
fff7
fffd
0001
ffee
0004
0009
0009
fffb
fffb
fff4
000c
0000
000f
0004
0010
000a
0006
fff7
000e
001b
fffc
fff9
fff0
ffff
0004
0002
ffed
fff5
fff9
0004
fffe
0004
0003
001d
fffb
fffa
0004
0008
000b
0006
0001
fffb
fffe
fff6
0000
fffd
0000
fff4
0000
fffc
fff0
001d
0009
000c
000d
ffee
0009
fff8
fffd
0001
fff0
ffed
fffe
0005
0007
0000
0000
fff8
0005
0000
fffe
fffb
ffff
0002
fff1
fff3
fff1
fff6
0011
0001
ffeb
fffd
000f
0003
fffa
0010
0009
0000
fffd
fffa
fff7
fff8
0000
0003
0003
fffd
0000
fffe
000a
000b
0005
fffe
ffef
ffee
0009
0002
0000
fff3
0012
fff9
0016
0009
0005
ffec
0017
fff6
fff1
fff0
fffa
ffff
fff4
fffd
0000
0006
0000
0009
0003
fff7
0007
0001
fff3
0002
fffa
000b
000b
fffc
fff9
0008
002b
fffc
fff3
fffe
0000
fffe
0000
fff9
fffd
fffc
fffb
0000
fffe
0000
fffe
fffe
fff8
fff9
000a
fffb
fffc
000b
0002
000c
0008
fff9
fffb
0000
0009
fffc
fff4
ffff
000c
fff7
000e
0005
fff2
fffe
fffd
fffa
0001
0004
000b
0006
fffe
fffe
fff7
ffed
0008
000b
0002
fffc
fffe
0004
0012
0002
000c
fffb
fffd
0000
fff5
fffe
0010
000c
fff0
ffff
fffb
fff7
fffa
fff9
0001
fffa
ffff
0000
fffc
000b
0009
0006
fffe
0000
fff6
fffb
0000
fff9
0008
0002
0002
000f
fff3
fffd
fffd
0000
0000
0008
fff6
ffff
fffd
0002
0000
0000
fffd
fffe
0010
ffff
0006
0002
fffa
fffa
000d
fff9
0003
ffea
000c
0002
ffff
0008
ffff
ffff
ffff
0011
fffd
0005
ffff
0001
fff9
fffc
0008
0001
fffc
fffe
0006
fffb
000b
fffb
0002
fff9
0003
0003
0008
fffa
0000
0004
0002
fffc
0009
fffb
0002
fffd
fffb
0013
fff8
0000
fff5
0000
0004
fffe
fffb
fffb
fff4
0005
0013
ffff
0003
0005
fff3
0021
fff7
fffe
0000
000d
0003
0006
0005
0000
ffed
0000
0005
fffe
fffc
0003
0004
0000
0000
0000
0004
0002
fffd
0000
0005
0003
000c
0008
fff1
0006
fffc
0007
fffb
fffc
ffff
0000
0000
0004
fff8
fff3
0005
fffa
fffd
fffd
ffff
ffff
0000
0001
fffe
fff6
0001
fffd
ffef
0003
0005
000e
000f
fffd
fffb
0004
0002
fff9
000a
ffff
ffff
fffc
0000
0003
0007
0001
fffc
fffa
0002
0006
0005
fffe
0000
ffff
0000
0004
fffc
0002
0008
0001
fff5
fffb
0006
0000
0007
fff9
fffc
0005
ffff
0006
0007
fff5
ffff
0002
fffa
fffd
0006
0003
fffd
ffed
0000
0003
fff3
ffee
ffef
0002
000d
0001
0000
0006
ffff
fff9
fffe
fffb
fffe
0007
ffff
fffd
0006
0000
fffe
fff4
fffd
fff2
ffff
fff7
fff5
fff2
0005
0003
0001
0003
0004
0004
fffe
fff8
fff9
fffe
fffb
0003
fffc
fffb
0001
0005
fff9
fff9
000d
0000
000e
fffd
0007
fff8
fff8
0007
fffb
fffb
0005
ffff
fffe
0004
0002
0009
fffc
0003
fff6
0001
fffd
fffa
ffff
fffb
fffe
0006
fffa
fff9
ffff
0006
000f
fffb
0010
0000
0001
0001
fffc
fffe
0005
000b
fff6
0009
fffe
fff5
000d
fff5
fff8
fffe
0002
0009
0004
0002
fff9
fffb
fffe
0000
fff9
0009
0001
0000
fff6
ffff
fffc
0002
fffc
fffd
0001
0005
fff9
0009
0003
fffb
fffc
fff8
0000
0002
0000
0003
0009
0000
0000
fffa
0000
ffdf
0006
000f
0000
fffb
0002
fff7
0000
0000
fff2
0005
0000
0002
fff7
0007
0008
fffe
0006
fffd
fff6
fffa
ffff
0006
0003
0003
fff9
fff9
fffd
0003
000d
fffb
fffe
fff9
fffc
000b
fffe
fffb
fffa
fffa
0006
fffa
ffff
0006
0006
0007
0008
000a
fffe
fff4
0003
fffb
0006
fffe
0002
fff8
000b
fff3
fffa
0004
fffb
0007
fffe
fff7
0001
fffd
0000
fffe
fff8
ffed
fffc
0004
fffe
0008
0000
fffe
0000
fff6
0012
fffa
0005
ffff
ffff
0000
0000
000a
0000
fffc
ffff
000c
fff4
fff4
0001
0008
0000
fff8
fffe
0001
0007
fff6
000b
fff8
0000
fffb
ffff
0000
0008
0000
0008
0001
0003
ffef
fffe
ffff
000c
fffa
000b
fff6
0001
fffb
fffc
0006
fffd
fff9
fffe
fff6
fffc
0007
000e
0005
fff9
0003
0007
fff3
ffff
0006
0007
0003
0004
fff2
fff5
000f
0000
0013
000a
0009
fffa
fff8
fffc
fffd
0002
0000
0005
ffff
fffd
0014
000f
0000
fff5
ffff
0002
0004
fff1
fff7
0004
fffe
fffe
fff8
000a
0006
0004
0009
0004
fffc
fffd
0004
0003
0000
0000
ffff
fffd
0004
0005
000b
fffe
0000
ffe3
000d
ffff
fff9
0000
fffc
0002
0002
0007
fff9
0004
fff3
fff1
0005
fff9
0003
000f
0007
fff7
0000
0003
0001
fffc
fffc
0016
0007
fff8
fffd
0000
000f
0000
0000
000b
0002
0001
000c
fffa
0000
0000
ffea
ffec
0007
fff8
000c
000a
0000
fffc
0007
fffa
fffe
fff5
fffc
0005
0007
fff8
fffd
000a
0005
fff0
ffe4
fff7
fffc
0005
0000
fff9
fff7
fff8
0007
000b
000c
000b
0003
0001
0002
0000
fffa
0005
fff8
0000
000e
0009
0011
0015
fff8
ffec
0001
0003
fff1
fffd
ffeb
fff3
fff9
fff5
ffff
0008
0009
000d
0018
001f
0014
001f
000a
0001
fffa
0008
000a
0000
0008
fff3
fff3
fff1
fff5
ffff
fffb
fffd
fffa
fff2
0001
0001
fffc
0019
0005
fff8
ffe8
ffee
ffe6
fff6
ffef
fffc
fffc
000a
0001
fffd
000c
000b
0007
fff6
fffb
ffea
fff8
fff9
0008
fffd
fffd
ffec
0001
fffa
0014
000e
0003
fffe
fff4
0003
0010
fffe
ffee
fffc
0008
0006
0000
0001
0000
0002
000d
000d
fffc
fffd
0003
fffa
fff6
0004
0000
000e
0008
fff9
0009
fff2
0008
0004
0007
0009
0005
0019
0007
fff7
ffff
0003
fffe
0000
0009
0006
0000
000d
000a
fff2
fffc
0002
0011
000b
0002
0000
fff9
fff1
0006
0000
0001
0007
fffc
0000
fff0
000b
000e
0000
fffd
0002
0008
000d
000b
000b
fffd
0008
000b
0001
fff3
fff5
0006
fff0
0000
0001
0002
fff9
0009
ffee
fffa
0001
000e
fff0
0003
fff6
0014
0008
fff7
0000
0004
0000
0001
000c
fffe
0010
0002
000b
ffed
fff2
fff8
ffef
0011
0006
000b
ffed
0000
fff5
0013
fff8
0000
0000
000b
ffeb
0008
ffef
fffb
0001
ffff
0005
fffc
000c
0007
0012
0008
0011
0002
0002
fff2
fff8
fffa
ffef
fffd
0003
0007
0001
0000
fffd
fff3
000d
0002
fffd
000c
0009
0001
0004
fffe
000b
0001
0009
0008
0003
001c
0000
0005
fffb
0000
0000
fff6
0004
0003
fff7
fff2
0003
000b
fffb
0001
fff2
000b
000e
0002
0001
fff4
fffa
fff6
fffe
fff5
000a
0006
0016
000e
fffa
0011
0008
0003
000c
ffe0
0006
0003
fff6
0006
0007
0003
0007
fff8
ffff
fffb
ffef
0017
0000
fffb
fff6
fff8
fffe
fff8
0006
fffc
000e
000d
fffb
0017
0008
0023
000d
fff7
fff9
fffd
0000
fff5
fff3
000f
0010
fffd
fff1
ffff
fffa
ffff
0003
fffa
0000
fff9
fffa
fffb
0006
fff5
fff5
fff5
0005
fffc
fffc
0003
fff8
0003
fff2
fff8
0006
fff9
000a
000f
0002
0009
fffa
0015
0008
fffa
fff7
fffe
0004
000c
0001
fffd
000c
fffd
fff9
fff4
0013
fff5
fff8
0014
0007
fffd
0001
0004
0008
0006
0004
fffc
fff7
fffb
fffd
001b
0012
fff4
0006
0007
000e
0003
0003
fff8
000d
fff2
0008
fffa
fffc
0005
0001
000e
0006
ffed
0000
0004
0000
0000
fffb
ffff
0007
0000
0007
fff8
0000
0000
0003
fff8
0008
ffff
0000
fff8
fffb
0000
fff2
0008
0002
0006
0000
0003
000a
0009
fff5
fff4
fff6
0002
0003
fff6
fffd
ffff
fff8
fffe
0006
fffc
0000
fff3
0000
fff9
fffd
fff5
fff7
fff9
fff7
000a
0003
fff8
0003
0000
0001
fff3
0006
0001
ffec
ffff
fffd
fff9
fffa
000c
fffd
fff9
0006
0000
0007
0001
0000
fff8
ffff
fff1
fff3
fff6
ffff
fffd
fffc
fffb
0008
fffe
0006
0003
fff6
0004
0008
0000
0006
0004
fffb
0012
fffd
fffe
0006
001c
fffe
000e
000e
0007
0002
fff4
fff1
fff4
fffb
000b
fffa
0004
fff9
0005
0000
fffe
0000
0003
0006
fff8
fffa
fffa
0000
0000
fffa
000a
fffd
fffa
0001
0001
0004
0009
000c
fff9
ffee
fff1
fff4
000a
0006
0001
0001
000f
fffb
0002
0001
0007
000d
fffa
0004
0004
0005
fff3
0001
fffd
0005
0005
fffd
0004
0006
0002
ffff
fff8
fffe
ffff
fff3
0008
0001
fffd
000a
0005
fff7
0000
0000
0009
0001
fff7
0007
fff5
0000
0005
000e
fff8
fff8
0005
fffd
0000
0009
fff9
0004
0001
fffd
0002
0000
0005
0000
fffb
0001
0000
fffa
fff4
0001
000f
0004
fff5
0003
fff5
fff9
fff4
ffff
000e
ffed
0005
0001
0004
fffd
fff9
0002
fff8
fffb
fffe
fffb
000c
0000
000d
0003
fff5
fffe
fffb
0007
0018
0011
0000
0003
fffd
fffa
fff2
fff8
0001
0011
0007
fffb
0017
fffc
fff7
0000
0009
0000
fffd
fff3
fff4
fffc
fff2
0000
ffed
ffff
0006
fff8
0013
0008
000f
fffe
fffa
0003
fffe
0005
fffc
fffe
fffd
0007
0005
0000
ffff
0000
ffff
fffa
fff3
0004
ffff
fff2
000a
fff2
000d
fffe
0004
ffff
000e
fff2
0007
000e
0009
fff3
0000
0012
fffa
ffe7
fffe
0000
fff8
0006
0002
0000
ffff
0002
0007
ffee
0000
fff8
000b
0001
fff5
fffd
000f
fff2
000a
000a
0003
0004
fffe
0000
0008
fff7
fffd
0010
fffa
0006
fffa
0004
fffd
0005
0008
0007
0008
ffed
fffd
0002
fff6
fffb
0000
0002
0005
fffd
000d
0006
0008
0002
fffa
fff9
0002
0007
000d
fff9
fff0
0004
0004
0002
0008
000c
fff6
0003
fffd
0000
fff3
0005
fff5
0009
0000
0000
000a
fff9
ffec
0006
0005
fff6
0004
000d
fff9
0004
ffff
fffb
0002
fff3
ffee
0000
0008
0007
0009
0007
fff4
0007
001b
fffd
ffff
0001
0009
fff9
fff3
fff1
0008
ffef
ffea
fffa
000b
0000
fff5
ffed
fff5
fff6
0005
fff2
fffd
fff5
fffd
0006
0000
000d
0012
000a
0003
ffff
fffa
0008
fffc
ffef
0004
0000
fffa
0006
fffc
ffef
ffe4
0003
fffb
000a
001a
0007
0006
0002
0006
0009
0000
0004
0000
0005
0003
0008
000d
fffb
ffe9
fff9
0001
fff9
0016
000e
ffff
0000
000b
000b
fff8
ffec
fffa
fffd
000a
0003
fff9
0007
0001
fff4
fffb
fff8
0001
fff6
0005
0000
0003
0012
fff0
fff9
fff2
0000
0009
000a
0006
0006
0011
fffc
fff2
fff2
fffb
0003
000b
0006
fff3
fffd
fffb
0006
fff9
fffd
fff9
0007
ffff
0007
000c
0001
0007
000c
0005
0001
0000
0000
000d
fffe
0003
ffe7
fff5
0003
0012
0000
0013
0004
fffb
fff8
fffe
0002
0007
fff8
0000
fff9
0005
0002
0007
0000
000c
fff4
fffd
0000
0011
fff6
fffc
fff9
0003
ffef
0000
0000
000e
000f
0011
fffc
0000
0000
fff8
fff6
0000
0005
fffb
fffc
fffb
0001
ffec
0001
0005
000a
000c
0000
000c
000e
fff1
fffd
fff5
000a
ffff
fffa
fffc
000f
0010
0004
fffa
0003
fff6
fffd
0000
fffc
0003
0000
fff7
fff6
000d
0000
fffa
fffc
fffc
ffff
0012
000c
fff7
0000
fff3
0008
0005
0004
fff8
fff5
0002
0010
fffc
fff9
0003
fffe
0001
0006
0002
0003
0000
0006
fffd
0004
ffe7
ffff
fffd
0008
fffe
0012
0002
000b
0009
fff9
0000
fffd
ffef
0001
0008
0005
0001
0008
fff9
fffc
0000
fffe
fffd
fff7
fffb
ffff
0008
0000
ffea
fff4
0008
fff4
fff7
fffb
0012
0015
0010
000a
0003
ffff
ffed
fff2
0007
000b
0009
0009
fffc
fff8
0000
fffd
fff2
fffc
fff9
fff8
fffa
0012
fff6
ffef
0001
0006
fffd
fff5
000d
000f
0004
fff9
fff7
0004
fff7
fffd
000e
0007
ffe9
0002
0000
fff7
ffff
fffe
0007
0000
fff6
fffe
fffb
fff5
fffd
0001
fffa
fff6
fff7
fffd
0000
0011
ffff
0008
0001
fff9
000d
0007
000b
0003
0000
0007
0004
0009
fff8
0000
ffff
ffff
0006
0002
0005
ffff
0000
0003
fffa
000e
fffe
0007
fff7
000f
fffa
fff4
000c
0000
0004
0009
fff4
fff9
fffe
000f
0007
fff6
fffd
fffa
0005
0000
0006
0002
fffb
0009
0002
0002
fffa
fff9
fff1
fffe
0009
fffd
0002
fff8
fffd
0001
fff7
fffe
fff6
fffd
0008
0009
ffff
0006
ffff
0002
ffff
000a
0002
ffff
0005
000c
0001
0011
0000
fff7
fffa
fffb
fff4
ffed
0000
fff4
0001
fff0
fffd
fff8
0002
0000
0003
0006
000d
0007
0001
fffe
0001
fffb
fffb
0006
fffe
000e
001f
0003
000c
fff7
fffb
0008
fffa
0004
0009
fff4
fffa
0005
fff8
0005
0000
fff4
0000
fffb
0001
0002
0006
000b
0009
fffb
fff7
0004
fffa
000a
0015
0002
0007
0001
fffa
fff7
000b
ffef
0009
0000
fffd
fff1
fff9
fffd
fffa
000d
ffff
0000
ffff
0004
000d
0009
0005
fffb
fffd
fffb
0002
0002
fffd
0002
fff9
000c
fff4
0006
0006
fff6
0003
0000
000e
0001
fffc
0000
fff8
0000
0003
fffa
000b
ffff
0006
0006
0006
0000
0000
ffff
ffff
0002
fff5
0007
fff8
0015
ffe7
fffb
fffd
0000
0001
fffe
ffff
fffb
fff4
fffb
fffe
fffc
000b
0004
000a
0002
0004
0002
000b
fffd
0000
fffd
fffd
0007
0000
0005
fffc
0008
0001
fffd
fff7
fff3
fffd
fffd
0012
000a
fff9
0000
fffc
fffe
000b
000e
0001
0007
0004
0009
0004
fffc
fffc
0000
0011
000c
0001
fffc
0004
fffd
0005
0003
fff4
fff5
ffff
fffa
0004
0000
0005
fffd
0007
0004
0007
000d
000a
0001
0005
fff6
fffa
0001
0009
000b
0001
0002
0002
fff1
0002
fff5
0005
fffc
fff5
fff1
000d
0001
000d
0008
0008
fffb
fffd
fff8
ffff
0005
0004
0000
0000
fff8
fff9
fff9
fff3
0010
0004
0000
0003
0009
fffe
fffd
fffe
0003
fff1
fff1
fffd
000e
0004
fffd
0006
fffd
fffd
fff5
fffe
0008
fff3
fff9
0000
fffe
fff7
0002
fffa
0003
0001
0001
0006
0009
0002
ffff
0009
fffc
fff3
ffec
0000
fff7
0004
ffff
ffff
ffff
fffe
fffb
0001
fff5
ffef
0000
ffff
0001
fffe
fffc
ffff
0000
0006
fffa
0009
0011
0008
fffe
fffd
ffee
ffed
fff2
fffc
fffb
000f
0003
0011
0015
0005
0000
0003
fffa
fffb
fffa
fffb
fffd
0002
fffd
fffb
fff5
fff7
0008
fffc
0009
000c
0003
fffa
0000
fff8
fff6
0006
0000
fffc
000d
0002
0008
0005
fffd
fff9
0000
0007
0000
0003
fffb
fffc
fffe
fffb
fff7
0000
0003
000b
fffc
0000
ffff
0006
0000
0003
ffff
fff4
fffb
0003
000b
ffff
fffb
fffa
0012
fff4
ffed
0008
0005
0005
fffe
ffff
fffd
0004
0014
0007
0006
0000
ffef
fff8
0002
0000
0005
000f
fff1
ffff
0004
0007
fff9
0000
fff4
0004
0000
fffd
000a
0002
0002
fff8
fff6
0004
0007
0003
fffe
fff6
fffc
fff3
0002
ffeb
0002
000b
0005
0016
0000
fffe
fffe
0005
0003
0005
fffc
0009
fff6
ffef
0000
0009
0003
fffd
fff9
fffd
fffa
fffd
fff6
0001
fff8
fff9
ffe1
ffff
000b
000b
ffff
fff6
ffe1
0001
0002
0020
0007
0000
fff4
fffe
0007
fff6
fff3
fff8
0005
0002
fffe
0004
fffd
fffa
0006
0003
0000
001f
0000
fff1
000d
0014
000f
fff9
ffe9
fffd
0009
0000
ffee
0004
fff4
000d
0004
0008
0000
fffb
fffb
0002
0009
0006
fffe
0008
000c
000f
0007
0006
000b
0006
0017
000e
000a
fffa
fff0
ffec
000e
000c
0013
fff9
ffff
ffff
0000
000b
0005
fffe
0002
0001
0001
0001
0006
0000
ffff
ffed
ffeb
0003
fffd
fffc
ffff
0000
0011
fff7
fff3
fff0
fff0
ffe9
fff1
fffe
000b
fff5
ffed
0000
000a
000e
fffd
0000
fffc
0000
0002
0008
fffd
0002
ffdd
fff1
fff4
000e
ffee
ffed
fffe
fffe
fff3
000a
0001
000a
000a
0000
0007
fffd
fffb
fff3
0006
0003
000a
0003
fffd
0000
fffc
ffee
0007
0005
fff0
ffff
fff2
fffc
000e
fff5
fffc
fffe
ffed
0011
fffe
0008
0005
ffee
0002
001e
ffec
fff3
fff9
ffff
0000
0000
fffa
0009
0012
0000
fff4
fff2
fffb
0010
0000
0003
0010
0011
fff7
0011
fffd
fffc
fff0
fff8
0004
fff0
000c
000b
ffea
0019
0000
0007
0009
fff6
0000
000f
ffff
000a
fffb
0000
fff2
0000
000b
ffff
ffe1
0012
0007
fffa
0003
fffc
0013
0000
fffe
0004
0010
0002
fffc
0004
fff0
0000
0000
fffd
ffff
0008
0010
0000
0007
000d
fffd
fff4
001b
0012
000b
fffb
0002
000c
0006
0006
0002
000c
fffa
ffe2
0000
0007
0000
0002
fff5
fff0
000a
fff7
fff4
0009
fffc
fff9
fff9
0000
fff2
ffe9
ffff
fff8
0002
0004
0000
000b
0006
0000
fff5
0002
ffff
ffff
0000
000f
0006
fffc
0009
0009
0008
fff8
fff9
0001
fff8
fffd
fffb
ffee
fff3
000d
fff4
fffa
0002
0007
0007
0011
fff7
0006
fff8
0008
0008
0011
0001
000d
fffd
000f
000d
0001
fff2
fffe
fffd
0000
fff4
0010
0003
fff2
000e
ffeb
fff2
fff6
0013
fff8
fffe
0000
0006
ffff
000c
fffa
fff5
ffef
0000
0003
fffe
0008
fff6
0000
0000
0003
fffa
0006
fff2
0002
fff7
0007
fffe
fffc
fff0
fff9
0008
fff4
0013
0011
fffe
fffb
0001
0000
ffe8
fffd
0007
fffb
fffe
0001
fffd
fffc
0004
fff9
0004
ffff
0001
0008
fffb
000c
fff2
000f
000a
0002
0000
0007
fff5
000b
000b
fffb
fffc
000a
ffe7
fffc
fff9
ffed
0009
0004
000b
fffd
fff7
ffff
0009
fff8
ffff
fffd
0017
fffb
fff1
fffc
fffd
ffef
fffe
0000
0003
0012
0001
fffc
fffe
0010
ffee
fff7
0009
0002
0003
ffe5
fffe
fff8
0007
ffff
fff3
fffc
0004
ffff
fffd
0009
0004
0007
fffc
ffe8
0004
0001
0000
ffe6
0002
0001
fff6
0007
000b
fff5
0015
0008
000c
fff9
0000
fff1
fff3
fff6
fffb
0004
0002
0006
0002
fffb
0002
0006
fffc
fffc
fffb
0007
fffb
000a
fffb
fff9
fff6
fffb
0000
000e
0018
fff8
0006
0000
fffc
0002
fffe
0004
fff2
fff0
000a
0000
fff7
0000
0002
0015
0000
0004
fffe
0000
0006
0005
fff4
fff9
0002
0002
0007
fffd
fff9
0004
fff5
fffd
0013
000d
ffee
fff5
ffee
0001
ffff
0004
fffb
000b
0006
0000
0002
fffc
fff8
ffff
0005
fff5
fffb
fffe
000a
fff5
fff8
fffc
fffb
000f
fff7
fffb
fff8
fffe
0003
0001
fffd
fffd
ffff
fff8
0000
fffe
fff6
fff7
0008
0002
fffd
fff2
000a
000f
fffc
fffe
ffed
0008
002f
fffa
0009
0000
ffee
fff1
000e
ffef
fff9
0003
0006
fff7
0003
0003
fffd
fff9
0004
0003
fffc
fff5
fffd
0009
ffe5
000a
fffa
000e
000b
fff1
0000
0004
001d
0015
fffb
fffa
0003
fffc
000c
0003
fffa
0006
000c
fff7
fff4
fffd
fffa
fffd
fffd
0008
0011
fffa
fffb
0017
000a
fffe
0000
fffe
0007
fffe
fffa
fff5
0000
fff8
fffe
0011
fff5
fffd
0002
0005
0009
0003
fff8
0001
fff1
ffff
fffe
0015
fff3
fff4
0006
0001
0011
fff3
fff7
fffb
0001
0004
fffe
fffb
fff2
0004
0000
0009
0001
0000
fffc
fffb
0002
0004
fff6
fff2
0005
fff9
fffe
000d
000d
fffe
0008
0016
0008
fff3
ffff
ffe3
fff6
0009
0005
0006
fff6
ffec
ffef
ffff
0000
0000
0009
fffe
0007
0000
ffeb
fff4
000c
ffff
fff2
0009
fffd
000e
fff8
fffb
fff7
0008
fffe
0008
fff6
fffc
fff7
fff6
0025
fffa
0004
0009
0001
fff8
0000
fff2
0007
0002
0000
0003
000b
000a
000c
fffb
fff6
fffe
fff5
0009
000a
0003
000e
0002
0005
0006
fffe
0004
000d
fff5
0006
0010
fff9
0001
fffc
fff9
fffb
000d
0002
fffb
0006
000b
0001
fff0
fffe
ffff
fff3
0006
ffe7
0003
000a
0006
fff6
fff9
0000
000b
fff3
0000
000a
fff8
0000
0000
0002
fffb
fffe
000f
fffb
000e
fffb
0007
001a
0008
ffec
0005
fffc
fff7
fff6
0000
fffa
fff1
fffe
fff7
0013
0000
fffd
000c
fff3
0004
fffb
0003
0000
0000
0006
0003
ffff
fffe
ffef
fff8
0013
0000
0002
ffea
fff2
0006
0016
fff2
fff2
ffef
0013
fffb
fffa
000f
ffdc
fffa
0005
fff6
0001
0002
fffa
fffe
fff7
0008
fffa
0006
0008
fff7
fff4
0009
fff9
fffa
fffc
0012
001a
fff1
fffc
fffd
000a
000e
0015
0000
0000
fffd
0000
0001
0002
fffe
fffc
fff4
0004
0000
fffe
fff7
fffa
fff7
ffef
fff2
001b
0006
fffd
000f
001a
fffb
fff0
0010
0000
ffed
fffe
000c
fffa
0004
0007
0005
ffff
0000
fff9
fff9
0000
0006
0007
000e
0003
fff7
000e
fff5
ffef
ffea
fff4
fff9
0000
0004
000b
fff6
0007
0004
0011
fff7
000e
fffa
0005
0001
0003
fff9
fffa
fffe
fffc
fff5
0006
0008
ffee
fffd
fff5
fffa
0004
0000
fff6
ffef
fffd
ffee
0008
0001
0000
0006
0004
0000
fff5
fff9
0005
0002
fffb
fff3
fffb
ffff
ffff
ffee
fff3
0003
0007
0005
ffee
0000
0002
0003
fff8
fff0
fff2
fffe
0000
0006
0008
0002
0007
fffb
000a
0006
fffe
fff7
fffa
0000
0000
fff9
0000
fff2
fffd
000e
ffff
fffe
fff5
fff9
0004
0004
000a
0002
fff7
0002
000b
0001
0009
0007
0008
0001
ffff
fffa
fff3
fffb
fffe
fffd
ffff
0000
0000
fffb
0005
000c
fff9
ffff
000b
0008
0000
fffd
ffff
0003
fffe
ffef
0014
fffd
fff4
0000
0008
ffff
fffc
000c
fffc
0009
fff9
fffe
0007
0009
0000
fffb
0006
fffe
ffff
0006
0007
0010
0008
0006
fff7
0000
0000
0000
fff8
fffe
0014
0000
ffff
0000
0000
fffc
0009
0012
000b
0003
0001
fffc
fff9
fff4
0003
0009
0003
0009
0011
000e
fffd
ffff
fff5
fff7
000a
fff7
fffb
000e
fff2
0005
000f
0005
fff7
0005
000b
fff7
0004
fff5
0000
0000
0002
0006
fffa
0005
0008
001c
0010
fffe
0006
0001
fffc
0002
0001
0004
0002
fff9
fff1
000a
0009
0002
fffb
fffd
0004
0002
0003
fffb
0009
0005
000c
0003
fffd
fffc
fffe
0010
001c
ffef
fff8
ffff
fff8
0006
fff3
0003
0008
fff7
fffe
0011
0009
0009
000e
fff3
fffb
0003
0001
0000
0007
0002
0008
0003
000b
ffe8
fffd
fffe
0004
ffef
0000
0001
000a
fffb
fff9
fff2
fff4
ffff
ffff
0004
0013
fffb
000c
0006
0000
fffa
fff8
ffff
0014
0007
0002
0007
0001
fff1
fffb
000e
fff2
ffec
0006
0007
0015
000c
0001
fffa
fff5
fffe
fff5
fff0
0008
0011
fffd
000b
0004
0000
0001
fffe
ffff
fffb
ffff
fffc
fff8
fff2
0000
0003
0001
fff4
fffe
0005
fffa
fffb
fffc
fffa
0008
0005
0000
fff3
0007
000b
0003
fff4
0004
0005
fffe
fffa
fffb
0002
fffb
0000
fffa
0009
fff5
ffff
fff8
0009
fff9
0004
0008
0004
0000
0008
fff6
fffd
0009
0003
fffd
0004
fff8
0009
fffb
fff8
0006
fff6
0001
0001
0006
0005
0008
0013
0001
fffb
fff7
fff9
0006
0000
0006
0001
0003
0007
0003
000c
fffe
fff5
0011
fffe
fff1
0000
0006
fffe
0002
0003
0003
0005
000b
0007
fffa
fffa
0008
fffa
0000
fffd
0002
000a
fff5
0001
ffef
0004
fffe
000d
ffed
0000
fff8
0001
fffd
0001
fff9
0006
fffc
0000
fffc
fffc
0009
0004
0002
0000
0002
0004
fff9
fffa
0001
0004
0004
fffa
fffe
000a
000c
ffff
0001
000a
0009
fff1
fffc
fff2
fffd
fff5
fffe
000d
fff7
fff8
0000
000b
0000
ffff
0000
0009
fffa
fff5
0001
0000
0000
0000
fff8
ffff
0011
000a
fff9
fffe
0001
0006
000d
0004
fffd
fff2
0004
fff8
fff6
fff8
0000
0006
0005
fff7
fffe
0010
000a
fffa
fffb
fff7
000b
0002
fffb
fff9
000e
0000
0001
0003
fffc
fffd
0002
ffff
0010
0008
fffb
fff8
0002
0007
0007
0001
fff7
0002
0003
0000
fffe
000b
000c
fffb
fffe
0007
fff2
fffa
0012
fffc
0009
fff4
0003
fff8
fffd
ffeb
ffff
fffd
0000
0007
fffe
0007
0002
fffe
fffe
0005
fffc
0003
fff5
0008
000e
fffc
0002
0000
fff8
fff7
000f
0003
0006
0003
fff0
fffe
0004
0003
000c
fff9
0000
fffd
fffa
0003
0009
fffe
000b
fff8
000c
0000
fffb
fffe
0005
fffd
0001
0007
fff7
0000
fff5
0005
fffe
0000
fff5
0004
0000
0002
000b
fffa
0002
fffd
0001
fffd
0006
0000
0005
0009
fff8
fff0
ffee
0012
0006
ffff
fff5
000e
0004
fffb
0004
0001
0000
fff9
fff8
000d
0007
fffe
fff7
000a
fff6
0003
0006
0000
fffc
0001
0007
0000
fffe
fff0
fff8
000d
0007
fff1
0008
fffc
fff9
000d
0004
0009
0000
ffef
fff7
fff9
0000
0000
fff3
0012
0006
0008
fffe
0000
0000
fffc
fffd
0009
fff8
000a
fff6
ffff
0002
0004
fffa
0000
0003
fffb
0018
000b
fffb
000f
fffb
ffeb
ffff
0010
0005
0003
0003
fffd
0006
fffd
000b
ffef
fff3
000a
0002
fff2
0004
fffe
fff8
fff4
0005
000e
0013
0002
000d
0011
fff7
fffd
000f
fff5
0007
0008
fff9
fffc
fffd
0001
fffc
0000
0007
fff7
fff0
0004
000a
0005
fff3
0007
0013
000c
fff1
ffdd
ffec
000e
fffa
000b
001c
0008
0000
0007
0022
fffc
ffe5
0007
0009
0000
0003
fff5
fffc
fffc
fffd
0004
0009
fffa
fff8
fff3
fffa
fffb
fffc
000a
0004
0009
ffec
0008
fff4
fffa
fff0
0007
0009
0009
fffe
ffff
0005
fffb
fff9
fff9
0005
0008
0002
0003
0008
000d
001f
0017
0002
fffb
0004
fff2
ffe8
fffe
fff5
fffb
0000
0006
fff9
fffb
0009
000a
0007
ffff
0003
0002
0000
fffa
000a
fffa
fffa
fff2
0002
0006
000b
0005
000e
0000
0008
fff3
fffe
0000
0001
0001
0014
0008
ffe2
ffef
fffd
ffe4
0001
000b
fff8
0005
0000
0001
fff4
0009
0000
fffe
ffef
fffb
ffff
ffff
000c
0011
000e
0007
0008
0000
0000
0000
0003
fffd
0000
ffeb
0000
fffc
0000
0008
0004
0000
0008
0007
fffe
fffc
000b
fffd
fff2
000a
fff6
fffb
ffff
fffc
0008
0005
0019
0000
0000
000d
ffff
fffc
ffff
0004
fffd
fff5
fff2
0002
fff8
0004
0005
0006
0009
0003
ffe9
fff2
ffe6
fffd
000b
0010
0000
ffff
fff3
0009
000a
fff7
ffff
fff8
0007
000b
0001
fff8
0002
fffd
0008
fffb
fffe
ffff
fff9
0007
fffe
fff8
fff1
fffb
fff8
fff7
0000
0008
0002
fff7
0008
0004
0003
fff7
fffd
0000
ffef
fffa
000b
0000
fffe
ffec
fff9
0002
000a
0009
fff8
fff6
fff6
fffd
fffd
0000
fff4
0002
0010
0000
fff1
fff8
0006
0000
0009
fffb
fffa
fffc
fffe
fff1
0004
fffa
fff4
fff9
fff1
0008
000d
000c
0002
0001
fff7
fff2
ffe7
ffe2
ffe9
fffd
000e
fff9
0000
0008
fffe
0005
0012
fff6
0012
0001
ffeb
0005
0000
000b
0001
0016
0002
0017
000b
0001
fffd
000d
fff5
ffec
fff2
ffee
fff1
fff8
fffd
000c
fffb
fffb
0000
fff7
0002
0006
fffd
fffb
ffff
0013
0009
fff7
fff6
0009
0000
0008
fffc
ffff
0003
0000
0000
0006
ffff
fffc
fff8
ffeb
0008
fffb
fffe
fff3
fff3
fffc
ffff
0008
000c
fff0
0004
0001
0004
000a
0000
0004
0002
0008
0005
000b
0007
0001
ffe5
0000
fff5
fff8
0008
0002
0003
0002
fff4
ffe9
000a
fff9
000b
0007
0002
0000
fff8
000d
fffb
0000
0002
0000
fff7
0007
0004
fffd
0000
fffc
ffec
ffff
ffed
0002
0008
0007
0009
0002
fffa
fff5
fffb
0008
0003
0007
ffff
0005
000c
0004
0000
0007
ffff
0002
fff8
0003
0000
000b
0001
ffec
fff8
fff6
0006
0002
0000
0007
000a
fff7
0004
0003
fff7
0014
0001
0006
0001
000a
fff6
0000
0005
0004
0005
0007
0000
0004
fffe
0000
000d
0008
0003
fff3
0004
001d
0000
0005
0007
fffb
0000
fff9
fff9
fffd
fffd
fffa
0000
0001
0008
fffb
000a
0002
fffc
fffc
fff7
fffb
fffd
0000
0004
0000
fffc
fffa
0005
0005
0000
0001
0003
0008
fff7
0000
0000
0003
0008
fff4
fff0
fff5
0004
0004
0004
0001
0003
fffc
0000
ffed
fff1
fffb
fffa
ffff
fff8
fff1
fffa
0005
0004
000b
fff3
0002
0004
0005
fff7
fffb
000b
0000
fffc
0008
0006
0008
0001
0003
0013
fffa
fffe
0002
fffc
0007
fff3
fffc
0003
0008
fffe
0005
ffff
fff7
fffd
0000
fffa
000b
ffff
0000
fffe
fff6
ffff
fffb
0003
0012
0000
0016
0008
ffee
fff7
0007
000e
0007
fff2
fffd
0010
fffe
0000
fff6
fff1
fff2
000c
ffed
fffc
fffb
000d
fffd
0000
fffc
fffe
0005
0003
fff9
0002
000a
0000
fffe
0001
0000
0005
fffd
000a
0008
0009
0007
fffe
fffe
0003
fffd
fff9
fffb
fffd
0003
000a
0002
fffb
ffff
0004
0003
fff2
000a
000c
000a
0008
ffff
0001
000d
0009
fff0
0000
0002
000d
000b
0003
fffb
000d
0000
fffc
0004
0000
0005
fffc
0005
0004
ffff
0000
ffef
0002
0004
0016
0001
fff9
0013
000d
0016
0002
fff4
0000
0003
fffd
000d
0008
0008
000b
ffef
000d
0007
fff9
000f
000c
0009
ffff
0001
fffd
0002
ffed
0001
0010
0008
000c
0017
000d
0008
fff6
0000
0007
0009
0001
0014
0000
0004
ffed
0006
000c
fffa
fff9
fffd
0002
0002
fff1
fffb
0003
fffd
0005
0002
000f
fff5
0004
0012
0004
fffa
0007
0007
fffe
000b
0007
000b
0000
fffb
fff4
0010
0004
0002
0009
000d
0009
ffff
fff8
fffe
fff0
fffb
ffeb
0002
000a
fffc
0000
fff4
0004
0006
fffb
000c
0007
0007
fffe
0008
ffff
0005
fff5
001b
fffe
fff6
fff4
0001
0000
000d
fffb
0015
0012
fff6
fffd
fff1
fff1
0006
fff4
fffb
fff7
fffa
fffc
0000
0000
0002
fffb
0005
fffc
ffff
0006
0006
0010
0010
0004
fff6
0002
0008
fffb
0005
fff7
0001
fff4
fffe
fffb
0014
fff5
0005
fffd
fff6
0003
fff6
fffd
fff6
0005
001a
fff7
000c
fffb
0002
fff6
0003
ffff
0010
0003
fffe
ffef
0000
000a
fff3
000f
fff5
fffa
0005
fff0
fffc
fffb
0000
000b
fffd
fffd
0000
0006
0005
0006
0006
0000
fff4
fffa
fff4
0016
0001
0005
000e
000f
fff6
fffc
0000
0009
ffed
fff0
0001
fffd
0018
000d
fffb
0001
0004
fff2
fffb
fff8
fff7
0001
0005
fff9
fffe
000e
0011
0004
000b
fff2
fffb
000a
ffe8
ffea
0008
000b
000d
000c
fffe
0001
0009
fff8
fffe
fffa
fff6
fff4
fffa
fff7
0003
fff0
0004
fffe
ffed
001a
0016
0012
0009
ffff
ffff
ffec
0001
fffd
001b
ffff
000f
0007
fff7
fffe
0002
000e
fffc
0000
fff6
fff0
0002
fffa
fffd
0003
fffd
ffff
000b
ffee
fffa
0004
ffe8
fffd
0005
fff8
0007
ffff
fff2
0002
0000
fffd
0003
0003
fffd
0008
fffe
0003
fff5
0000
fff7
0001
fffc
0000
0003
0016
0007
0002
fffd
0005
0002
0016
fffc
fff8
0007
fffe
fffb
fffe
0000
0001
0010
0009
fffd
fffa
0007
fffe
ffff
fff7
fffc
fffc
000d
0005
000e
0007
fff1
fff5
0012
fffd
fff7
fff1
0000
0001
001c
0002
fff9
0000
000d
fffd
0001
0001
0014
fff5
fffe
fffb
ffff
0003
0000
ffef
fffb
000a
fffa
000b
0008
0002
0000
0005
fffc
0009
fff1
0016
0000
0000
0003
fffd
fff3
0004
fffa
0004
0000
0009
0005
0002
0000
0004
0004
fff9
fff9
0006
fffc
0004
0015
0014
0000
fffd
000c
0000
0009
000a
fffd
0006
0001
fffe
0006
0000
ffff
0003
fffe
0006
0002
0002
fffc
0001
0005
0002
fff5
ffff
fffb
fff7
0006
fff7
fffa
fff4
0006
fff9
0007
000d
fffc
fff5
0007
fff9
fffd
fff8
0000
fffc
000b
0005
0002
0011
0003
fff8
0006
ffef
fffb
ffee
fffc
0000
0006
0004
0000
0009
fffc
fff2
0000
fffa
000a
fffe
0003
ffff
0006
0008
0000
0007
0011
0004
fffe
0001
fffa
0000
000c
0006
fff9
fff9
0005
fff0
0000
0002
fff5
0007
fff5
fff2
fff8
fffc
000f
fffd
ffee
0001
ffff
0005
000b
000a
0005
0008
fffd
0007
0000
0001
fffe
0002
fff9
fff9
0004
0000
fff9
000b
000c
fffc
0005
0009
fffa
0003
0000
fff7
fffb
0001
fffc
0003
0009
fff8
fff8
fff9
0007
0002
0007
fffc
fffc
fff7
fff7
fff1
fff5
0011
ffea
000f
000d
000b
000a
0002
0000
fff7
fff8
fff6
0005
fffd
0006
fffd
fffd
fffe
fff8
0001
0003
fffa
0007
fffb
0003
fff4
0000
0003
ffe6
0003
0014
0000
fffb
000c
0007
0000
0000
ffef
fff8
fffe
0000
ffff
fffd
fffb
fffd
fffb
0005
fffe
000f
0007
0007
fffa
fff9
ffee
fff4
0003
fff4
fff9
0005
0000
fffd
000e
fff7
0006
fffe
fffb
ffff
0005
fffe
ffff
fffc
fffa
0012
0004
0001
000d
0014
0006
0011
0006
0002
ffee
0000
fffe
0003
000a
ffff
fffe
ffff
0007
0000
0004
0001
fff9
0002
fffa
0007
ffff
0005
0001
fff2
0001
0009
0002
fffd
0004
0003
0010
000e
fffd
fffb
0007
0008
0005
fffd
0000
fff9
fffb
0001
ffff
0004
fffa
000c
0005
ffff
0005
0005
fffc
ffff
000a
fff8
fffc
fffe
fffe
fffe
0004
fffe
000a
0003
0005
0003
0002
0000
fff4
0006
0007
ffff
0007
fffb
0000
0006
fff5
000b
000f
0008
0001
fffb
fffc
0004
0000
0008
000b
0001
0000
0000
000a
000d
0016
0001
ffff
000a
0004
fffa
fff7
ffff
0009
0010
fffd
0007
ffff
fff9
fffe
0004
fffe
0000
000e
fffd
fff7
0000
fffc
fff4
000f
0005
000a
0005
0000
fff4
fff6
0009
000e
0005
fffb
0000
fffd
ffff
0000
0007
0005
0004
fffc
0005
0003
fff5
000e
ffff
0003
0001
fffd
0006
ffff
0000
fffe
000d
fffd
000c
ffff
0000
0005
0003
0007
0001
ffff
fffd
fffd
fff9
0010
ffff
0001
fffc
ffff
000f
0009
ffef
fff7
0004
ffff
0000
0003
fffb
000b
fff8
0000
fffd
0003
fff5
ffef
0001
000e
000b
fff6
fffc
0000
fffc
fff8
ffff
fff9
fff9
0000
000e
000f
0000
0005
0010
fffc
fff2
000c
0004
0003
ffff
fff9
0005
0008
ffff
fffc
fff3
0002
0009
0002
0013
0007
0003
fff7
fffe
ffe8
0002
0009
0008
000b
0001
0009
0008
0008
fff0
fffc
0009
0004
000c
fffd
fffb
0006
fff8
fffb
fffc
000d
000f
0001
0014
fff2
fffe
fffa
0002
fff2
fff7
ffff
0006
0000
0006
ffff
0004
0003
0003
0004
0009
000c
fffd
fffc
fff7
fffc
fff5
fff5
ffef
000b
ffff
0008
0001
0000
000d
0002
fffc
000b
fffe
fff3
fffb
0007
0005
fffe
0002
0002
fffe
fffb
0003
ffff
0002
0008
fff7
0004
0001
fffc
0003
fff8
fffa
0000
000a
fff7
000f
000d
0009
0003
000c
fffa
fff4
0005
0000
fffb
0007
ffff
0008
0002
0006
000b
000e
fff7
fffd
000e
fff0
0005
0010
fffa
fff8
fff8
ffff
fff0
0001
fff6
fffc
0000
000b
0000
fffd
000e
fff4
fff9
0002
000a
fff2
fff2
fffc
0003
000b
ffe0
ffff
0006
fffa
0008
000a
fffe
fff5
fff3
0004
fff2
ffed
fffb
0003
0000
fffd
0005
fff8
0017
fff8
ffec
fffe
000d
0000
fff9
fffd
0006
0005
0008
000e
000e
ffff
0006
000c
fffe
0002
000a
fffa
fff2
0006
fffd
fff6
fff0
fffd
ffef
000d
0003
0006
fffc
fff5
fff5
fff2
fffe
fff7
fffa
fff2
fff2
fffc
0003
0013
0011
001a
000f
0000
ffe1
000b
0028
0004
0007
ffff
0005
0017
ffff
fff9
ffff
fff9
fff4
ffff
0002
0000
fffc
fffb
fff6
fffc
fffd
0005
fffc
ffff
fffc
0001
0016
000d
ffff
fff9
fff5
0000
0011
0006
fff3
0009
fff8
fff5
fff7
0004
fffa
fff9
000b
0002
0002
fffc
0002
fff8
000a
ffed
0001
fff8
0000
fff5
0006
0003
fffa
fff5
fff5
0004
0011
0008
fff6
fff0
fffa
0004
fffc
0000
fffd
0004
0002
0001
0009
fffd
fffd
fffb
0006
0002
ffff
0005
0009
0003
0001
0001
0003
fffb
0000
0002
000a
0004
0005
0003
fffd
fff8
0004
0006
0004
fffc
fffe
fffa
fffd
fffe
0000
fffa
fff9
0001
000e
fff5
fff2
000e
ffff
fff1
0004
0013
0000
fffc
0005
fff1
000e
000b
fff7
0001
fffc
fffa
ffff
fffd
0005
0006
fffc
ffff
fff4
fffb
0007
fffd
0012
fff6
ffe4
fffe
ffea
fff9
0004
0017
0005
fff9
0003
ffed
0003
000a
fffe
0000
0009
ffef
ffff
0004
0003
0000
0008
fffc
fff9
ffff
0007
fff5
000d
fffc
0006
000c
fff2
0004
fffb
0006
000b
0009
fff4
0005
fffc
ffff
0005
fff1
ffff
0003
0005
0015
0003
fffe
0001
fffe
fffa
0005
0000
0008
fffa
0000
0001
ffff
000f
fffe
fff0
fffb
000f
0000
fffe
0007
fff7
0004
0005
0006
0005
fffe
fff6
0006
000b
0004
0009
fffe
fff6
0004
000a
0000
0002
0008
0003
ffff
0013
0003
ffff
000e
0006
0003
fff7
0007
fffe
0007
fff8
fffb
000b
0009
0000
fff8
0003
fff7
fffb
ffff
0006
0001
000b
fffd
fff2
000d
0009
000e
000f
fffb
ffea
0003
fffe
fffb
ffe3
0000
0010
0004
fff1
ffff
0001
0002
000b
fffa
0000
fff5
0002
ffff
fffe
fffa
0000
fff3
0005
fff5
fffc
0012
0008
fff8
0002
0007
0000
fffe
0003
0005
000a
0000
ffff
fff8
fffe
0001
0000
0004
0001
0003
fffe
fff8
fffd
fffe
0006
0001
000b
fffe
fffd
0003
fffd
fffd
fff9
0003
ffff
fffc
0008
fffc
fffc
fffb
000b
0003
fff6
0000
0002
0006
0000
0007
fff8
fff6
0009
0000
000a
000b
0000
ffff
0000
ffff
0005
fffd
0002
000a
ffff
fffa
0000
0000
0003
0005
ffff
0008
000a
0000
ffef
0000
fffb
0000
fff9
fff7
0004
0013
fff9
0006
0005
fffa
ffff
fffd
0009
000a
fffc
fffe
fffd
fffd
fffc
fff9
fffd
fffb
fff8
fffa
0015
fffe
fff3
0002
fffe
fffe
fffd
ffff
0002
ffff
fff7
fffc
0000
fff2
fffa
0007
fffc
000b
fffc
fffa
0001
ffff
000c
0000
0008
0011
fffc
0004
0004
fff6
fff7
0007
fff9
fffa
0006
fffb
0002
fff1
0005
fff5
ffff
fffb
0002
0000
fffb
0002
0003
ffeb
fff8
000e
0009
0002
0000
ffff
fffe
0000
0002
000a
0002
fff6
0000
fffa
ffff
fffd
0005
fff9
0005
0005
fffe
0001
fffc
fffb
0004
fffe
0003
fff4
0000
0005
0003
fffd
fff6
fffd
0000
0006
0008
ffff
0007
0001
0003
0002
fffb
fffb
0005
fff7
0002
0006
000b
ffff
0004
fffb
ffff
0006
000b
ffeb
fffb
fff5
0000
0014
ffff
fff9
fff9
0001
0005
fff9
0006
0000
fffd
000e
fffe
0000
0000
0007
ffff
fff5
0006
fffd
0004
fff9
0003
000a
0001
fff4
ffe4
fffb
0009
fff9
fff4
0003
0006
0001
0001
000a
fffd
0000
fff9
0002
0000
0005
ffff
fffe
fff8
fff8
0001
0004
ffff
0006
fffe
0010
0001
0002
fff2
fffa
000a
0000
fffd
fffe
ffff
0003
0001
0004
fffd
0002
0002
0000
fffd
0002
0000
fffd
0000
fffc
0003
fffe
fff7
fffd
fff9
0007
0005
0003
ffe3
fffb
0002
fff7
fffa
0000
fffc
0002
0004
fffd
0006
0000
0006
0009
0004
0006
fffb
fffe
fffe
0005
fffd
fffd
fffc
fffb
0004
0013
000e
0004
ffdb
000f
ffff
fff2
0003
fff6
0006
fff9
0003
fff9
0009
000a
0003
fff5
0004
fffe
fffe
fff7
0001
0008
fff6
fff9
0003
fffe
fffe
0009
000b
0007
ffda
fffe
0006
fff5
fff6
0004
fffc
0000
0002
fffd
0000
0002
0005
fff7
0007
0005
0000
0004
0005
0004
0001
0006
0000
fffd
0000
0000
0014
000c
fffa
0008
0006
fff6
fff0
0002
000c
0006
0004
fff8
fffc
fff9
0000
fff8
0006
ffff
0008
0005
0004
fffb
fffc
0004
ffef
0002
fff7
ffff
0011
fffd
fff2
0002
0009
0001
0006
0000
fffc
0007
fff6
0002
000a
ffff
0000
0006
0003
fffe
0003
0005
0004
0000
fffe
000b
0005
0001
fff2
fffc
000c
0000
ffe9
0000
0002
0012
fffd
ffff
fff9
0000
fff4
0002
fffb
0001
0000
0000
0005
fff9
fff3
0009
fffd
0001
0005
fffd
ffff
fff4
0004
fff9
0000
0003
ffea
0012
0000
0003
0002
fffa
fffc
fffc
fff9
fffa
ffee
0003
0003
fffa
fff8
ffff
fffc
0009
0004
fff7
0002
0006
0008
0003
0008
000f
001f
ffd8
ffaa
001e
0016
0011
ffff
fff3
fffb
000d
fff8
fff9
000e
0000
ffff
fff7
0001
0006
ffff
0003
0007
0000
0005
fff6
0006
fffe
0009
0017
000a
0004
0004
0007
0003
0008
0006
0000
0001
ffff
0001
0003
fff9
0000
ffff
fffd
0000
fffd
0001
fffc
0007
fffd
0005
0005
0001
0018
000e
000b
000f
0003
ffea
0002
0004
fffa
0005
fffd
fffb
0002
fffe
0000
000a
0003
fffa
0009
fff2
ffff
fffe
ffff
fff9
0011
fffe
0006
0006
000a
0004
fffb
000a
0017
fffd
0002
fffc
fffb
0007
fff5
ffff
ffff
fff9
0001
0007
fffe
fffc
0001
fff1
fff5
fff9
ffff
fff5
000a
fff8
0000
0001
0005
fffc
0010
0000
fffd
0001
0002
fffd
fffc
fffd
ffff
fffe
fff3
fff9
0000
0000
0005
0004
fffe
fff7
ffff
fff9
fff5
fff5
fff4
ffe4
0004
fffa
000f
0004
0001
0003
0004
0014
fff3
0000
0012
fffb
0002
0008
fffe
ffed
0002
0002
fffc
fffd
fffb
0000
0000
fffe
0006
0009
ffff
fffc
fffa
000b
0008
0002
0007
fffa
fffa
001c
fffe
0002
fff8
0002
0004
0004
fff1
000e
fffd
0004
0001
0001
ffff
fff9
000f
000d
0006
0000
ffe7
fff0
0007
fffb
0003
000f
ffee
fff3
0002
fffb
0000
0005
0008
0000
0000
fff5
0002
fffa
fff8
fff4
0003
0002
0008
fff9
0011
0003
0006
fffd
ffe4
000a
000a
0004
fff7
0002
fff7
ffee
fffc
000a
0004
0004
0007
0005
0004
0005
0008
0002
0000
0003
0000
000f
0005
0005
0004
fffc
0002
fff4
ffef
0005
0011
000b
fff6
0002
000b
0003
0005
0001
0001
0006
fffa
0009
fffa
0006
fffb
0005
0000
0000
fffe
0000
0000
0009
0001
ffff
fff9
fff1
0004
0014
0012
0006
0003
0004
0008
0004
fff8
0007
0007
0007
0003
0002
ffff
0000
000a
ffff
0000
0005
fffc
0008
0005
0005
0015
000c
fffb
000e
000e
0010
0010
fffc
0017
ffff
ffed
fffd
0000
0001
0004
fff8
0000
0002
0000
0000
0002
0005
0000
0001
0002
0007
0003
0004
0018
000e
000a
001e
0016
fff5
0006
ffff
0009
0000
fffa
fffa
0001
0003
0001
000c
fffb
fffc
fffc
000a
fffa
0000
ffff
0006
000b
0003
0002
0004
000b
ffff
0006
000c
0001
fff2
000d
fffc
0006
0000
0004
000b
0007
0008
ffff
fffb
fff5
0001
000a
0003
fffe
0001
fff8
fffd
0012
0002
000c
0004
0001
fffe
fff2
0003
fff0
fff9
0002
0000
0009
0002
ffff
0000
ffff
fffb
0000
0004
0000
fffd
0000
0003
0003
ffff
0005
0005
0003
fffb
0008
fff5
fffd
fffb
000a
0000
fff2
fff2
0000
fffd
fffe
0001
fffa
fff7
fffd
000c
fff4
0000
0004
0001
0001
fff9
000c
fff9
fffb
0004
0011
0001
fffb
fff8
0002
fff8
0001
0006
fff1
ffef
0002
ffff
0003
fff9
0005
fffa
0000
000d
fffa
0004
fff7
fffd
0000
0006
0005
0006
fffa
0000
0003
fff8
fffd
0008
ffff
0004
fff4
fffc
fffa
0006
0000
ffff
000a
0000
0000
0003
fffd
fffc
fffb
000a
0007
0001
0006
fffc
0009
fffd
0007
0003
fff9
0005
0005
0000
fff7
0005
0004
0000
fffe
fffe
0003
0006
fffe
0004
0001
0009
ffff
0003
0005
fff3
0000
fffd
0000
0009
0009
0003
0002
0000
ffff
fffd
fffc
0005
000c
0001
fffa
fff9
fffc
0006
fffb
0000
0001
fff8
fffc
0002
fffd
0013
fffb
0003
fffc
0001
fffa
fffe
0007
fff5
0009
000a
0006
0005
0001
0001
0004
fff8
fff2
0001
fff0
0008
0000
0000
0002
fffe
ffff
ffff
fff8
000d
0007
fffb
000b
ffef
0000
000d
0004
0001
0000
fffa
fff8
0006
fff8
0000
0004
0002
ffff
fffe
fffe
0008
ffff
0001
fff7
fff6
000b
0003
0002
0003
fffe
0003
fffd
0002
0000
ffff
fffb
0000
fff9
0005
0005
0004
ffff
0003
0000
0000
0009
0011
0006
0001
fff8
fff9
fff7
fff7
000f
fffd
0002
000a
fff2
0006
fffe
fff3
fffc
000e
fffa
fffa
0008
fff3
fff3
fffe
fff5
0001
fff9
ffff
0000
0000
000a
fff9
fff0
0003
fff4
fff9
0000
fffe
0014
0001
0003
fffa
fffd
fffe
fffd
0011
0000
fff6
0000
fff7
fffa
ffff
fffb
fffc
fff2
ffff
0008
fffd
000f
fffe
0004
0000
ffff
fff7
0002
000b
0001
0001
0000
0005
0000
fffa
fff7
000d
0002
ffff
ffff
0000
fffe
fff0
ffff
fff7
0000
fff4
ffff
fffc
000c
0000
fffb
ffe7
0006
fffb
0004
000c
fffa
0001
0004
0010
0009
0002
ffff
ffee
fff6
000f
fffb
000a
fffc
0000
fff8
fff7
fffd
fffb
fffd
fffa
fffc
fff7
fff5
fffd
000a
000a
0005
0000
0008
000e
000e
0004
0004
0001
fff6
ffde
fff8
000a
fffb
000c
0012
ffff
fff9
0002
0005
0005
0001
0000
0004
0004
0000
fff6
ffff
000a
0005
0008
fff6
fff1
0007
0007
0005
0003
fffa
fff7
0015
fffe
fffd
000f
fff8
0004
fff3
0005
fffc
0000
fff9
fffa
0003
0003
0000
0000
fffb
0002
0000
0011
fff5
fff3
0008
0009
0006
fffb
fffc
fff9
fffa
0000
0001
fff6
ffff
0000
fffd
000b
0002
fffd
fffc
ffff
0001
0002
000a
fffd
fffa
0004
0019
0003
fffd
0000
0004
000a
fffe
fffd
0000
0012
0006
0006
fff5
fff9
fffe
0009
0007
0009
0000
0007
0003
ffe9
fff4
000b
0001
000a
0009
0009
000f
fff6
000c
0012
0009
000d
0018
0002
000f
0011
0003
fff9
ffed
ffff
fffc
0001
0000
fffe
0006
fff9
fff8
ffe3
ffec
0005
fffc
0007
0010
fff2
0004
fff0
0009
fffe
0005
0009
000e
0009
0011
000a
fffe
fff5
0000
fff6
fffa
0004
000b
ffff
fffb
0000
fff4
0002
fff1
000a
fffe
fff5
fff4
ffef
0012
fffa
fff9
fff3
0001
0002
fff2
fffd
0004
0000
fff4
0002
fff9
fff9
fffd
fffe
fff9
0005
0006
fff5
0000
0010
fff1
0000
fffb
0002
0006
fffb
0010
0006
fffa
fff1
fff5
fff8
fff8
fff6
000a
fffd
0009
000e
0003
0007
0001
fff7
0005
0009
0000
fff1
fffc
0007
0005
ffff
fffb
0006
000f
fff0
fffa
0007
fff9
fffa
0003
fff8
0007
0008
000b
0001
ffe7
0012
fff5
0002
fff9
fffe
0004
0003
0001
fffb
fff6
fff9
fffe
0003
0006
0011
000f
fffe
fffb
0002
fff7
000c
000e
fffe
fff7
000d
0004
fff5
fffd
0003
0000
000e
fff7
fff6
ffff
000c
fffb
0001
fff2
ffff
001e
0008
fff8
0008
0000
0006
fff7
0000
0000
ffee
fff9
0001
0002
0004
fffe
ffff
ffff
0010
fff9
fffd
0007
fffd
fff8
0005
fffd
0002
0005
fff9
0002
0004
fff7
fff7
fffe
000d
000c
0008
ffff
fffb
0000
0001
fffd
ffff
0007
fff4
ffff
fff8
000b
fffc
fff6
fffd
0008
0004
ffff
fffe
0003
0001
0002
0009
fffa
0005
fff6
fff5
000b
fff3
fffc
0003
0009
0002
0003
0000
ffe9
fffb
0000
000d
fffe
0001
fffa
0000
fffe
fffb
fffb
0000
fff4
0009
0008
fff2
fffc
fff9
0000
fffb
000a
0004
fff9
0003
000b
0000
000d
0007
fff5
fff9
fffd
0000
0000
0000
fffc
0000
0004
fffa
fff8
0008
0007
fff6
0006
000b
ffef
fff2
0000
fff8
0001
0008
fffd
fff4
0000
000c
fffc
0003
0004
0002
0000
fffc
0008
fffa
0002
fff6
fffa
fffe
fffe
fffa
0000
fffa
fffd
ffff
ffef
0008
fffb
fffe
fff6
0004
fffa
0002
0001
0001
000e
fffe
fffa
0000
0007
0001
0002
fff8
0006
fff6
fffe
fffd
fff9
0004
0005
fff9
fffc
fffa
fffb
0004
fffd
0001
fffb
0001
0001
0005
fffc
fffd
0012
fffb
ffff
0002
fffc
000a
000c
000e
ffff
0001
0003
0001
fff8
0000
0005
fff8
fff8
fff6
fffa
fff9
0004
0005
fff3
fff7
fffc
0001
fff4
0007
0008
0000
0000
fffb
fffe
0004
fffb
fffd
000a
000a
000c
0002
ffff
0001
0002
fffe
0004
fff7
ffff
0005
fff8
0001
0002
fffa
000a
0007
0000
fffa
0007
fff1
fffc
fffe
fff5
fffa
ffff
0005
0001
0001
fffa
0008
0005
0000
0002
fffd
0002
fff6
fffd
0000
0002
0002
fffc
fffc
fffb
0010
fffd
0000
fffe
0008
fff8
0000
0000
0004
fffd
ffee
fffa
0001
000b
0006
fffc
fffc
0000
ffff
0002
fffb
ffff
fff6
000f
000f
ffff
fffc
ffff
0009
0000
fff7
0006
0008
fff6
ffff
fff0
0007
ffff
fff9
fffb
0006
ffff
fff7
fffa
fffb
0000
ffff
0010
000b
fffe
0000
000a
fffb
0000
0003
0001
0008
fffd
0003
ffee
0001
fff8
0007
fff5
fffe
000b
fff6
0001
fffe
fffe
0003
0000
ffff
fffb
0005
0002
0003
0007
0005
0003
fffc
fff7
fffa
0004
000a
ffff
0000
0000
0006
0007
0000
0004
ffeb
0009
fff2
fff9
fff0
0003
0000
0000
ffff
0005
ffff
0007
0001
0002
0015
fffd
0002
fff8
0001
0004
0006
fffd
0006
0005
fffb
000d
fff6
0000
fffa
fff7
fffc
fffe
000a
0002
fffa
0000
0001
0004
fff5
fffb
fff7
000d
0001
fff6
000d
000d
0004
0002
000e
fff0
fffc
fffa
0005
0006
0009
ffee
fff2
ffff
fff3
0006
fffe
0002
ffff
fffc
000a
0009
0002
fff9
fff3
0001
000f
0004
fffd
fffd
0002
fff9
fffc
ffff
0002
ffff
0001
000a
000f
fffe
fff7
0002
fffe
000c
fffe
fffb
0004
0004
fffe
0003
000b
fff6
fff6
000f
fffc
000a
0008
fffd
0001
fff8
0011
fff3
0004
fffa
fff6
0001
0003
ffff
fff4
ffee
0000
fff6
000f
fff9
0009
0003
fff6
0000
fffb
0000
0000
0014
fffd
0000
0008
fffe
0007
0003
0010
0007
0000
ffe9
ffef
fff5
ffff
0011
fff0
fff3
000a
0000
0008
0000
0008
0002
0007
0003
0002
fff3
0000
0007
fff7
fff3
fffe
0006
000a
fff6
0002
000b
fff8
fffb
fff6
fff0
0019
0014
0001
0004
0004
0001
0005
fffb
0003
0012
fffa
0000
fffe
0000
000d
0001
0009
0003
fff7
ffef
0008
fff2
fff3
000a
ffe9
fffe
fffa
000f
0008
0006
001d
0000
fff2
ffff
0003
0009
ffff
ffff
ffff
0004
fff7
fffa
0012
0003
fff5
000e
fff5
fff9
ffff
fffd
fff4
000d
0006
fff7
0003
0007
0004
fffb
0015
fff7
fffa
fff8
000a
0002
ffef
fffb
fff3
fff4
0000
0004
fff9
0002
0006
0003
0004
0013
ffe1
fff1
ffeb
ffe2
000e
000f
0014
ffff
0004
fff5
fffe
fff5
fff9
fffc
fffc
ffef
fffe
fff5
ffff
fff7
0000
fffa
0005
0014
ffeb
000e
001f
0004
fffe
fffd
0012
fffc
0001
0010
0002
ffff
fffa
fffd
0005
fff9
fffb
fffa
0003
fffd
fffb
fffa
0000
fff6
fffe
000a
0005
fff9
0014
000b
0004
0000
ffed
fff1
000e
fff8
0000
0004
0001
000c
0008
fff3
fffe
fffc
0007
fff9
0004
0003
fff4
fffc
0006
0005
0016
0014
0012
0002
ffef
fffb
fff8
0000
0004
0007
ffe4
ffe2
0004
0002
0007
fff7
fff7
fffe
0007
0005
0000
fffc
0007
0004
fff9
fffd
fff9
0003
0000
000e
0000
0004
fffa
0001
fff4
fffa
fffa
0002
0001
ffec
0002
0002
ffff
fffa
fffc
0010
000c
0006
0009
fffa
fffd
0002
fff7
ffff
fffe
fff7
fff5
0015
000b
0001
0006
0000
0012
0005
fff7
0001
fff8
fffc
0001
000b
fff7
fff8
fff5
0000
0003
0003
0003
0000
0002
0000
0004
fffb
fff9
fff7
0006
0008
0009
0002
fffc
fff9
ffff
ffff
0001
0004
fff1
000b
000f
fffe
0000
fff4
fff4
0007
fffb
0004
fffe
fff9
0000
fffb
fffc
fffd
0000
fffd
fff8
0000
000b
0005
0003
0008
fffe
fffb
0000
ffff
0001
000a
0007
0005
fffd
fffe
0006
0000
0002
0003
fff8
ffe9
fff8
0002
ffff
ffff
fff4
0004
0004
fff8
fff5
fff4
000b
0007
fff7
fffa
fffa
000a
fffc
000b
fffc
fff5
0003
0004
fffc
fff5
0000
0007
fff2
0000
ffff
fffb
fff8
fffc
fff5
fff7
0001
0015
0000
0004
0007
fff9
ffff
ffff
0003
ffff
0002
fff7
000a
0000
ffe8
0009
ffff
0000
0007
0001
0008
fff7
fff9
000a
000b
fffd
fffc
fffb
0008
fff7
0002
000f
000b
0002
000b
fff7
000b
0008
fffc
fff6
0006
fff8
0000
ffff
0002
0000
fffe
fffb
fffb
0000
0003
fffd
0003
000a
0003
0004
0012
fff7
0014
0002
0004
0003
fffe
0004
fff5
fffc
fff9
fff8
fffb
000b
0000
fff8
ffff
000a
fff2
fffd
000a
fffe
fffc
fffa
0001
fffc
ffff
0000
0009
0004
0007
0013
fffc
fffa
fffe
000e
000b
0006
fffb
fff0
fffa
ffef
000a
fffa
fff6
0010
0004
fffe
000b
fffc
fff2
0001
0009
0006
0001
0003
000c
0007
0009
0002
fff6
fff7
ffef
0003
0002
fff7
0001
fffb
fff8
fffe
0008
0001
fff7
ffff
0006
fff5
0000
fff3
000a
000b
0000
fffe
0008
0001
0005
ffff
0002
fff8
fff3
0005
0008
000b
fffc
0003
0001
fffd
fffe
ffe7
fffe
0002
0001
0009
0000
fffd
0000
0002
fff6
0000
fffb
fff7
fff9
0006
ffff
0001
0007
0000
0003
0002
0002
000a
0003
0001
0001
000f
fff7
0010
fff4
fff9
fff7
0002
fffb
0008
0012
0001
fff3
0004
0003
0007
fff6
0005
0004
0009
fffe
fffc
fff4
0000
fffa
fffe
fff8
000b
fffd
fff3
000a
fff5
fffe
0010
fff0
fff6
fffd
0014
0007
0007
0002
0000
0007
0003
fffc
0000
0000
0003
fffb
0004
0003
0012
0006
0004
0001
fffd
0007
0008
fffb
fffc
0002
fffe
0006
0008
0000
fff7
fffc
fff6
fff2
fff1
fffa
000b
0001
fffe
fff4
0000
fff8
0004
ffef
0011
0009
fffb
000f
000b
0007
fff4
0000
0003
fffa
fff8
0000
000d
0000
ffff
fffc
0009
000a
fff2
0002
fffb
0006
0003
fffe
ffff
fff8
0008
0002
fffd
fffa
fffd
fff7
fffe
0000
fffa
ffff
0000
0003
0006
0001
0000
fffb
001c
fffd
0004
0007
fffe
fffd
ffff
0007
0000
0003
fffe
fff4
0000
000f
fffa
0000
fffc
fffd
0000
fff6
fffd
0005
0000
fff3
fffa
fff0
fffb
0004
0006
0003
0007
0007
0004
fff4
0003
fffd
0004
0003
fff1
0000
0005
0004
fff4
fffc
0000
fff0
0003
0000
ffff
0007
0000
fff3
000d
000f
fff3
0007
000a
fffd
0007
0008
000f
ffff
0002
0003
fff8
0004
000d
0000
0000
fff9
fff1
0005
0000
ffff
0006
0004
0009
ffff
0007
fffa
0004
0000
fff9
0001
000d
0000
0001
0007
0000
fff6
0000
0003
fff3
ffee
000f
0007
ffe6
fff3
000d
0000
fffd
ffff
0000
000f
0000
0009
000a
fff9
fffa
fff0
fffc
0000
0005
ffff
fffa
fff9
0005
fff7
0013
0001
0006
fff9
0015
fff9
fff9
0005
0004
fff2
fff8
0004
0000
0008
0006
0006
0017
fff7
0003
fffc
0000
0005
0000
000a
fffb
fffc
fffe
fffb
fffb
0000
fffe
ffea
0005
fff9
fffb
0015
fff6
fffc
fffa
fff8
fffa
ffff
fff4
fffe
000f
0001
000f
0007
ffee
ffff
0003
0002
000a
0003
0005
fffa
0005
000a
fff8
fff5
0000
0011
0004
000b
000a
ffec
0008
fffb
fff4
0001
ffef
fffc
fff5
fffd
000c
fffe
0000
0004
000f
fff7
fffd
0006
fffb
fff3
fffd
0001
0005
fff7
0005
0011
0007
0003
fffe
fffa
fff2
fffa
0002
0008
fff9
fff1
fffb
0014
0015
fff1
0000
000f
0001
000d
000d
0001
fff3
0002
ffff
0003
0003
ffff
0001
fff6
000c
fffc
0007
000e
0007
ffed
0012
0000
0004
0000
0011
fff9
fff4
ffdf
ffff
0005
ffff
ffff
fffd
fffa
0003
0000
fff9
0005
000e
0013
000b
fffa
0012
0002
0011
0026
fffa
0000
fff6
fff5
fff9
fffd
0008
0011
0005
ffee
fffb
0001
0006
0008
0005
0000
fffa
0007
0001
0009
000b
0004
fff0
0001
0000
fffa
000a
fff6
fff5
fffe
fff3
fffa
0001
000f
fffc
0005
0000
fffa
0006
fffa
ffff
fff6
0005
0006
0006
0001
fffe
fff9
fff4
fff6
0000
0000
fff2
0002
fffe
fffd
fff7
fffe
ffff
0003
fffc
fffb
0000
000b
fff7
0003
fff6
fffc
0003
0008
0002
0006
fffe
0009
0005
0004
fff6
0003
0009
fff7
0007
0001
fffa
0006
0000
0004
fff4
0007
0008
fff5
0002
000e
0005
fff4
fffd
ffee
0004
fff4
0001
0008
0003
ffff
0006
0004
fffd
fff9
0003
0000
0001
fffa
0008
fffd
0000
fff8
0005
fffc
0004
000c
fffe
0000
fffc
ffff
0006
fff6
fff8
0000
fffe
0005
0000
fffe
ffff
fffd
ffff
000c
0009
000a
ffff
ffef
fffd
0002
fff2
0003
ffff
0004
fffc
000a
000b
000b
fffd
0008
000c
000b
fff3
0007
0000
fff9
000a
0000
0004
0007
fffe
fff5
fff6
fff9
000e
fff7
0006
0007
fff6
000c
0003
0005
0009
fff5
0000
0002
fff0
0000
0005
0004
0005
fff9
fff5
fffa
0003
0000
0005
fffe
fffe
0001
fffb
0000
fff7
ffe8
0004
0008
ffff
0000
0000
0004
0001
fff7
fff3
fffc
fff1
000a
fff2
0000
0000
fff4
fffb
0000
fff9
0002
0004
fff4
fff5
fff6
0004
0001
000b
fff7
0002
fffa
000b
0019
0003
fff0
fff3
0002
fffc
0000
0001
fffa
ffe4
fff9
0001
fff4
0000
ffff
0006
0007
0008
ffee
0002
ffdc
ffe9
000d
fff9
0009
0004
0000
000c
0003
0008
fffb
000d
0008
0000
fff3
000a
0000
0005
fffd
0000
fff8
0006
0006
ffff
ffff
0009
fff7
fff7
fff3
fffe
0001
0014
0000
0000
0005
fffd
000b
0008
ffff
fffc
fff6
0000
fff2
ffff
0007
0007
0005
fff8
fffb
0000
0006
0004
0002
fff8
0003
000b
0003
0004
fffa
0010
000a
0008
fffb
0002
fffc
ffff
000e
0007
0004
0005
fff3
fff1
fff9
0003
0003
fff8
000f
ffff
0007
000a
0010
000d
000b
000c
000c
0000
0002
0000
fffc
fff8
0000
000d
fffe
0001
fff4
0005
0011
fff7
fff5
ffff
0001
fffe
000c
ffff
0001
0003
0001
000a
0008
0000
0009
0002
ffee
fffc
0007
fffe
fff2
fff7
0005
fff9
fff8
fff5
fff8
0005
0015
fff9
fffc
0006
fffc
000c
fffc
0006
fff8
0005
0005
0005
fffd
0001
fffb
000a
ffff
fff6
0000
fffd
0001
ffe6
000c
0007
0004
0004
0000
000e
0000
fffa
fffe
0009
fffc
0005
0003
ffff
fff4
ffff
fffb
fffc
0002
fffe
ffeb
0007
0002
fff8
0002
fffd
ffff
0005
fffd
fff7
0003
0005
fffe
0000
0001
0010
fff9
fffb
000b
ffff
fffe
0003
0003
fff8
0000
fff5
000a
0001
fffc
fff9
fffc
0008
000d
fffe
0003
0007
fffb
fff8
000e
0000
000b
0003
0004
fff7
fffb
fffa
0003
fffc
0006
0007
0005
0001
000c
0007
0001
0004
0003
0013
fff8
fffe
fff2
fffe
000a
0007
0004
0000
0005
0002
0006
000a
fffa
fff6
0001
0003
0006
000d
0006
ffea
000b
0002
0006
0000
0003
0007
0002
0005
fffb
0000
fffc
fff5
0004
fffe
fffa
0000
0002
fff0
000e
0003
0003
fff6
fff9
0000
0001
fffc
0001
0001
0004
fffa
0007
0001
0006
0001
fffa
fff9
fffa
fffa
fffc
fffd
fff9
0004
fff9
fff9
fff4
fffa
0017
000b
fffe
fff7
ffff
0000
ffff
000c
000e
fffd
0000
0003
fff3
fff6
0006
0005
fffa
fff6
fffb
0003
fffc
fffb
0006
0009
ffff
0008
fff9
0008
0012
fff8
fffa
fff0
0007
0000
0000
0009
0015
0005
fff0
0004
fffa
fffd
0001
fffd
ffff
ffee
000c
000e
0000
ffff
fffd
fffe
fffb
fff4
fffa
fffa
0014
0001
0000
fffd
000b
0001
fff2
0002
0006
000e
0000
0000
0004
0004
ffff
0007
0007
fff3
000a
0000
fffa
fffc
ffeb
ffff
fff9
000d
fffa
fff2
0016
0000
fffc
000b
0007
0007
fff2
fff6
fffe
fffd
0000
0002
0003
000a
0006
fff6
fffe
0003
0013
0005
fff7
ffeb
fff9
000a
fff5
ffff
fffc
0000
000d
fff7
fffe
0004
0003
0009
fff6
0000
0008
0000
0006
0004
0007
0007
fffc
0002
0008
fffc
fffb
0003
0015
fff0
fffc
000a
fff9
fff2
fffb
ffff
0006
0001
fffb
fff9
fffd
fffe
fff5
fff8
0005
000e
fff7
0004
ffee
ffff
fff7
fffc
000a
0001
ffef
fffc
000c
0007
fff6
fffe
fffd
0011
fffb
0003
0005
0000
0005
0005
fff2
fff3
fff2
fffc
000d
fff0
fff8
ffff
0001
fffb
ffff
fffe
000a
fffd
0000
0004
fffe
fff8
000f
0000
fffb
fffc
0000
0001
0016
0004
0000
fff7
fffc
000e
fff2
fff4
fff5
0012
0008
0000
fffc
0000
0001
fffa
0006
0002
fff1
fff9
000e
0009
0000
ffe2
0019
000f
0002
0005
0007
0000
fff2
0007
0007
ffff
0007
000e
0000
fffc
fff6
fffb
0005
fffe
fffc
0005
ffff
0007
ffed
fffe
fff7
fffd
000d
0004
000c
0003
0003
fffc
0005
0014
0000
fff3
000e
000f
000a
000d
0002
fff2
fff9
0002
0005
fffe
fff6
fffb
fffc
fffd
ffeb
fff8
0017
fffb
fff1
fffe
fff5
fff3
fff8
0013
fff6
0000
fffb
0007
0004
fff4
0002
000f
0018
0001
0000
fffe
ffff
fffd
fffb
ffff
0007
0006
fff6
0008
ffe1
ffff
0000
0000
0002
0001
0003
0003
fffe
0000
000a
ffff
fffa
fffc
fff9
fff1
fffb
0009
fffa
0001
000d
fffb
0003
0001
ffff
0000
0008
fffa
0001
ffdf
0000
0009
0007
ffff
0003
fffa
ffe4
fffa
fffb
fff2
000b
0003
0003
0000
0003
0012
fff5
0000
0005
0000
fffa
0003
fffc
0002
000b
0021
ffff
0001
fff9
000a
0005
0002
0009
fff6
fff6
ffee
ffff
0017
fffc
ffff
ffeb
fffc
0009
0003
fff9
0007
fffe
0007
0003
fffc
fffa
0004
fffb
001f
0006
0003
ffff
fffe
fff6
0007
0002
0008
0005
0012
fff3
ffed
0009
0005
fff4
fffb
000c
fffe
0001
000d
0009
0003
0003
0004
0001
fff0
fffd
0005
0000
ffef
fff8
fff9
0005
fffd
0002
0009
fff2
0000
0007
000d
0011
fffb
ffff
0003
0009
fff4
ffff
0004
fffa
fffb
fffa
0004
fff7
ffed
0001
0008
fff3
fff4
0000
fff1
0009
000b
0003
fff6
0009
0002
0002
0000
0000
0000
0000
0000
fffc
0004
0008
0000
0000
0002
0005
fffb
fff7
fffc
0006
0003
fff4
fffa
fffb
fff4
fffc
0010
fffb
0000
fffc
fffa
0005
0003
fffb
0002
0001
fff8
fffc
0005
0002
fffd
0000
0005
fffd
fffc
fff8
ffe8
0001
0000
000e
0003
fff1
0005
0007
000d
0019
fff7
0008
fff5
fff7
0004
fffd
0003
0006
fffd
0002
fff5
0006
0007
0003
0001
0005
000a
0009
fff8
fff3
fff7
0018
fffe
fff8
0002
0014
0007
fffd
fff7
0000
fffb
ffff
0005
0003
0008
0005
ffff
fff9
0000
0001
0008
0011
0007
0003
0008
0004
fffc
fff3
fff6
fffe
0001
fffa
0000
0003
0008
fffd
fffe
fffc
ffff
0006
0004
fff6
fff9
ffef
0009
0002
0007
0000
0006
0007
000d
fffb
0005
000e
0011
fffc
fff7
0008
fff8
0007
fffa
fffe
0005
0002
0009
0002
0000
fff9
fffe
fff5
fffc
0002
fff3
fff9
fffd
0009
0003
000f
0001
000a
fffd
fff7
0011
ffff
fffb
fffb
000b
