0018
fff4
fff6
fff5
0005
fff3
0038
ffff
000f
001e
fff7
0063
0015
fffe
0000
0010
0001
0008
0009
0000
ffff
fff6
000f
fff5
ffd0
0011
0001
fff8
0002
0027
ffeb
0016
fffa
ffff
fffa
ffec
fff2
0010
fff1
0000
fffc
0000
ffc1
000b
0017
0002
ff7b
ffee
fff9
0000
000c
fff8
ffe9
0006
fffe
fff8
fff0
fffa
ffd5
0005
0009
0003
0015
001e
fff2
000e
fffa
fff1
0000
0002
0003
0000
0005
fffc
fffd
0002
0003
fffc
ffec
fffd
ffff
0000
0000
0006
ffb7
0004
ffff
0000
fff9
fffe
0000
0000
0002
0006
fffb
0004
ffff
0000
0000
000d
0000
000a
0001
fffd
002d
0002
0000
ffff
0003
fffa
0007
ffff
fffc
ffff
0000
fffe
0000
fffe
0000
0008
0007
0000
000e
0034
fffc
ffff
0001
0001
ffaf
fff2
0023
000c
0001
ffeb
000b
fff6
0011
0015
ffe5
fff1
fff2
006a
0005
0008
fff8
ffe5
fff3
0007
ffff
fff4
000d
0073
ffec
0029
0000
0006
000c
0012
ffe2
0037
0000
ffff
fff5
ffe9
003d
ffe3
ffdb
0017
fff6
0009
001e
0008
fff5
0003
001e
fff6
ffed
0000
ffee
ffee
003d
ffd2
0010
002f
ffd9
0001
ffdd
ffdc
000b
fff9
0010
0017
000f
fffa
0003
0041
ffff
fffd
ffc8
fffc
000b
ffea
ffee
fffa
0008
fff9
fff0
0007
fff7
ffe2
fffb
ffd7
003f
000b
0018
fff8
fffa
fff9
0002
0005
0006
ff95
fff3
0005
ffdd
0025
fff8
ffe9
0005
0027
0002
000d
0004
0008
001b
0000
ffef
0013
0008
fff8
0016
fffc
0002
fffd
0009
0007
fffc
0002
0016
0001
0025
ffe8
ffea
ffff
0005
0018
0000
0000
0000
fff7
fffe
ffe5
fff9
fffc
0008
fffb
0086
fffe
fff6
ff96
0007
000f
0003
0004
0002
000b
0000
0000
0015
ffeb
ffff
0000
0004
0000
000d
000a
ffee
0004
0003
fff8
0002
fff8
002c
fffa
0019
fffd
fffd
0008
0000
0000
fffe
0008
0009
0023
fffd
fffe
fff6
fff9
fff0
fff9
0034
000f
fffa
0000
fff1
fff8
fffb
fffe
000b
0012
fff9
0002
000d
0000
ffab
0001
0000
0005
0005
fffe
ffff
0001
fff8
fffe
0000
0006
fffe
0003
fffc
0005
0000
000b
fffb
0000
0003
ffff
ffaf
0009
0002
0007
fffc
fff9
0001
0003
0001
0008
0003
0005
fff9
fffc
0001
000f
fff3
000c
fffb
fff4
fffe
0000
0002
004a
fffd
0034
0007
0001
fffe
0002
0009
ffcc
0001
fffa
fff7
fff6
fffd
fffe
0029
0027
ffd7
ffe9
ffff
003e
fff9
0002
0025
fffe
ffd2
ffb8
ffe0
0018
0010
ffd4
0014
002a
0008
ffd7
ffff
000b
ff99
ffcb
0051
ffb3
0009
fffa
0009
000f
0000
ffa9
0016
0000
ffda
0002
ffc8
ffe0
001a
ffdf
ffea
000a
0004
ffe3
0010
ffeb
0038
000f
ffed
fffa
0022
fff8
ffe7
002b
ffb8
ffad
001f
ffff
002b
fffd
fff5
0005
ffb9
ff9e
0006
0000
ffef
fffd
0067
ffff
0001
ffff
0000
ffff
fffe
0000
0005
0001
0007
fffd
0000
0000
0004
ffff
0000
0008
0002
0000
ffff
ffff
ffe9
0031
0003
fff8
ffff
0004
0000
0000
0003
fff8
fffd
fffc
000a
0008
ffff
0002
0008
fffa
0004
000a
0001
0001
0000
fff7
0003
0002
0000
fffe
0001
0002
fffb
0042
fffe
0009
0011
0000
0000
0002
0000
fff1
000a
fff9
fff8
fffc
0002
000c
0030
fff2
fff5
0002
001a
fffe
fffc
0002
fffe
fffb
0003
0021
0004
fff3
001b
0004
0002
0017
0002
fff8
0007
0004
007b
fff6
0007
0000
0010
0003
fff3
0002
ffff
fffd
0006
000d
000c
0002
fff5
0005
0007
ffee
0003
ffdc
fff4
000c
fffa
0005
0000
0012
fff9
0000
ffff
0009
000c
001c
0014
ffff
ffff
ffff
0007
0000
fffe
0000
ffff
fffe
0000
0000
0000
ffff
fffc
ffff
fffe
ffff
0002
0000
fffb
0002
0000
0000
fffe
fffe
0001
0002
0045
ffd4
0002
0001
0000
0000
0000
fffd
0000
0002
0000
0000
ffff
0000
0000
ff98
fffc
0000
0000
fffd
0000
ffff
0000
fffd
ffff
fffe
ffff
0001
0000
fffd
0001
fffb
0001
ffff
fff7
0000
0001
0000
